<pad>	0
<sos>	0
<eos>	0
<unk>	0
▁t	-0
▁a	-1
in	-2
▁th	-3
re	-4
▁the	-5
on	-6
er	-7
▁c	-8
at	-9
▁s	-10
en	-11
it	-12
▁o	-13
▁w	-14
es	-15
an	-16
▁b	-17
▁p	-18
is	-19
al	-20
▁in	-21
or	-22
▁f	-23
▁m	-24
ed	-25
▁an	-26
ing	-27
▁to	-28
ic	-29
ar	-30
▁of	-31
▁e	-32
ion	-33
ro	-34
▁d	-35
▁h	-36
▁and	-37
ou	-38
ent	-39
le	-40
▁re	-41
st	-42
▁n	-43
om	-44
▁g	-45
il	-46
as	-47
ve	-48
ly	-49
▁l	-50
▁be	-51
ct	-52
▁u	-53
▁is	-54
ut	-55
▁that	-56
ol	-57
ation	-58
th	-59
im	-60
▁de	-61
se	-62
ce	-63
▁it	-64
▁for	-65
ver	-66
ra	-67
▁st	-68
▁wh	-69
▁on	-70
ur	-71
ment	-72
id	-73
ld	-74
ig	-75
ow	-76
ch	-77
ies	-78
▁as	-79
▁ch	-80
ot	-81
et	-82
▁con	-83
▁pro	-84
ir	-85
ad	-86
ill	-87
ate	-88
▁r	-89
ul	-90
▁mo	-91
ers	-92
nt	-93
▁–	-94
▁al	-95
ith	-96
pe	-97
est	-98
▁su	-99
▁un	-100
▁cou	-101
▁with	-102
ge	-103
ity	-104
▁ne	-105
▁ex	-106
lo	-107
ter	-108
▁are	-109
ay	-110
if	-111
ess	-112
con	-113
ab	-114
▁com	-115
ial	-116
ere	-117
▁ha	-118
el	-119
res	-120
us	-121
ain	-122
ive	-123
▁eu	-124
ist	-125
ort	-126
iv	-127
un	-128
▁not	-129
▁but	-130
▁by	-131
am	-132
▁sh	-133
ke	-134
▁se	-135
▁has	-136
▁wor	-137
conom	-138
▁le	-139
▁have	-140
▁pol	-141
▁v	-142
em	-143
igh	-144
▁econom	-145
pp	-146
ould	-147
▁will	-148
▁en	-149
▁y	-150
qu	-151
and	-152
ac	-153
oc	-154
ust	-155
▁chin	-156
▁at	-157
▁more	-158
rom	-159
▁go	-160
▁count	-161
um	-162
▁euro	-163
▁this	-164
▁im	-165
op	-166
▁from	-167
▁j	-168
▁or	-169
ap	-170
ant	-171
▁countr	-172
ical	-173
▁us	-174
ther	-175
ia	-176
os	-177
▁its	-178
ions	-179
▁their	-180
iz	-181
art	-182
ome	-183
▁“	-184
ure	-185
ast	-186
▁china	-187
▁2	-188
ib	-189
▁inc	-190
ong	-191
▁europe	-192
ans	-193
▁res	-194
▁int	-195
▁we	-196
▁imp	-197
ich	-198
▁tr	-199
▁they	-200
▁can	-201
ff	-202
row	-203
der	-204
▁ind	-205
▁ab	-206
▁ad	-207
ear	-208
▁would	-209
ak	-210
ect	-211
▁was	-212
▁ag	-213
gh	-214
pt	-215
all	-216
mer	-217
ore	-218
anc	-219
▁fin	-220
ight	-221
vern	-222
end	-223
▁he	-224
ary	-225
▁world	-226
▁cont	-227
ance	-228
▁all	-229
▁k	-230
▁20	-231
▁1	-232
▁govern	-233
▁than	-234
▁ac	-235
▁countries	-236
▁pr	-237
able	-238
ru	-239
▁which	-240
ip	-241
▁so	-242
▁comp	-243
du	-244
od	-245
▁man	-246
ous	-247
ational	-248
out	-249
▁ev	-250
ates	-251
ud	-252
▁new	-253
ated	-254
ard	-255
ign	-256
▁grow	-257
ark	-258
▁rec	-259
red	-260
▁part	-261
ations	-262
▁exp	-263
▁fa	-264
▁economic	-265
▁year	-266
ost	-267
▁government	-268
▁me	-269
ank	-270
ie	-271
▁(	-272
ult	-273
ress	-274
bal	-275
one	-276
▁do	-277
▁polic	-278
▁dis	-279
for	-280
ike	-281
lic	-282
▁polit	-283
▁inter	-284
▁pl	-285
reat	-286
▁bec	-287
▁inv	-288
ence	-289
▁one	-290
▁af	-291
▁pe	-292
▁glo	-293
ub	-294
▁global	-295
ide	-296
▁cr	-297
▁reg	-298
ag	-299
▁out	-300
ms	-301
und	-302
▁bank	-303
▁been	-304
ren	-305
▁comm	-306
▁over	-307
cess	-308
▁if	-309
▁dec	-310
▁no	-311
age	-312
ine	-313
ree	-314
ors	-315
▁tra	-316
ue	-317
og	-318
arket	-319
ile	-320
▁there	-321
▁dem	-322
ens	-323
ime	-324
ction	-325
▁growth	-326
lop	-327
▁lead	-328
velop	-329
▁cons	-330
ish	-331
so	-332
▁develop	-333
ack	-334
▁financ	-335
▁per	-336
ose	-337
▁other	-338
▁like	-339
▁ris	-340
▁ma	-341
ian	-342
ower	-343
ally	-344
▁some	-345
▁only	-346
ric	-347
are	-348
▁bo	-349
▁market	-350
▁need	-351
▁sp	-352
ition	-353
▁invest	-354
▁even	-355
▁should	-356
▁eff	-357
▁such	-358
▁cl	-359
ell	-360
▁amer	-361
▁americ	-362
▁also	-363
ities	-364
▁most	-365
▁ro	-366
ility	-367
▁now	-368
au	-369
cy	-370
ire	-371
▁ar	-372
▁sy	-373
▁could	-374
our	-375
▁political	-376
▁when	-377
ach	-378
▁pre	-379
▁about	-380
▁under	-381
▁high	-382
ident	-383
▁peop	-384
▁pres	-385
▁str	-386
fic	-387
▁ta	-388
▁these	-389
reas	-390
▁many	-391
▁intern	-392
▁financial	-393
▁people	-394
▁policy	-395
▁who	-396
▁bet	-397
▁cap	-398
▁long	-399
rou	-400
ange	-401
▁european	-402
▁rep	-403
ative	-404
▁po	-405
▁supp	-406
ited	-407
▁qu	-408
▁em	-409
▁cent	-410
ep	-411
▁up	-412
▁years	-413
very	-414
ublic	-415
▁ra	-416
▁work	-417
low	-418
▁increas	-419
oun	-420
▁cur	-421
▁inf	-422
▁br	-423
form	-424
gy	-425
▁what	-426
▁rem	-427
▁19	-428
▁his	-429
ath	-430
ments	-431
▁may	-432
ious	-433
▁co	-434
▁acc	-435
ble	-436
00	-437
ber	-438
▁were	-439
bt	-440
▁trad	-441
▁app	-442
▁fir	-443
▁economy	-444
▁inst	-445
ces	-446
illion	-447
old	-448
ution	-449
▁them	-450
ital	-451
int	-452
▁war	-453
ism	-454
▁country	-455
▁rel	-456
erv	-457
ause	-458
▁tw	-459
▁must	-460
lect	-461
av	-462
▁cris	-463
▁how	-464
▁am	-465
ang	-466
ough	-467
▁lar	-468
eral	-469
ame	-470
amp	-471
▁international	-472
stem	-473
▁produ	-474
ices	-475
▁201	-476
▁power	-477
ice	-478
▁mon	-479
uc	-480
act	-481
uch	-482
▁sc	-483
▁i	-484
per	-485
pect	-486
ord	-487
arly	-488
▁te	-489
▁soc	-490
own	-491
▁system	-492
erest	-493
ks	-494
▁while	-495
we	-496
ating	-497
ace	-498
▁ob	-499
ese	-500
ass	-501
▁act	-502
alth	-503
▁much	-504
▁gen	-505
▁just	-506
▁into	-507
▁states	-508
▁time	-509
▁leaders	-510
▁crisis	-511
ond	-512
man	-513
▁interest	-514
▁had	-515
▁att	-516
▁sec	-517
ory	-518
▁public	-519
ise	-520
▁trans	-521
▁any	-522
▁president	-523
ount	-524
▁recent	-525
ced	-526
▁ter	-527
▁far	-528
lud	-529
▁after	-530
▁pos	-531
ew	-532
uss	-533
▁conf	-534
▁real	-535
ind	-536
▁fore	-537
▁because	-538
▁ow	-539
ert	-540
.”	-541
▁again	-542
rough	-543
▁united	-544
ild	-545
ern	-546
olog	-547
its	-548
vers	-549
ible	-550
ful	-551
ons	-552
▁dif	-553
▁proble	-554
ists	-555
ade	-556
ual	-557
▁import	-558
ruct	-559
▁those	-560
imate	-561
ral	-562
hip	-563
ient	-564
▁ref	-565
▁two	-566
▁prov	-567
ific	-568
▁dep	-569
▁well	-570
▁des	-571
▁first	-572
▁fund	-573
▁contin	-574
▁200	-575
▁national	-576
urn	-577
ization	-578
▁debt	-579
▁def	-580
ase	-581
ives	-582
iss	-583
ject	-584
ite	-585
uring	-586
▁way	-587
▁democ	-588
read	-589
▁support	-590
ied	-591
▁remain	-592
min	-593
ics	-594
▁chinese	-595
▁add	-596
pec	-597
sel	-598
▁sim	-599
ok	-600
itt	-601
iven	-602
▁state	-603
▁end	-604
ption	-605
▁less	-606
▁right	-607
led	-608
day	-609
lear	-610
▁america	-611
ween	-612
ward	-613
▁fact	-614
▁between	-615
▁prog	-616
▁ent	-617
▁capital	-618
▁last	-619
▁jo	-620
opul	-621
▁our	-622
▁ass	-623
▁nor	-624
▁fr	-625
ene	-626
vel	-627
ration	-628
▁opp	-629
ues	-630
▁trade	-631
▁hel	-632
▁effect	-633
oll	-634
▁great	-635
▁adv	-636
▁investment	-637
ict	-638
▁min	-639
▁development	-640
chn	-641
ize	-642
▁popul	-643
ures	-644
eed	-645
ound	-646
▁bus	-647
▁afric	-648
▁includ	-649
▁change	-650
ry	-651
ings	-652
ural	-653
▁mem	-654
▁today	-655
▁large	-656
ince	-657
▁own	-658
▁where	-659
▁russ	-660
iet	-661
▁cost	-662
▁sur	-663
▁central	-664
▁both	-665
▁ke	-666
▁resp	-667
▁la	-668
▁banks	-669
rent	-670
ability	-671
▁sa	-672
▁help	-673
▁off	-674
allen	-675
▁through	-676
▁techn	-677
wh	-678
▁sub	-679
▁health	-680
▁lo	-681
▁requ	-682
▁hum	-683
▁examp	-684
vent	-685
▁cor	-686
get	-687
ential	-688
▁current	-689
▁against	-690
jor	-691
▁tax	-692
▁redu	-693
ergy	-694
ail	-695
cal	-696
▁rev	-697
aking	-698
▁markets	-699
loy	-700
ump	-701
▁major	-702
▁result	-703
▁conc	-704
ty	-705
▁infl	-706
▁instit	-707
ilit	-708
▁sign	-709
rib	-710
utions	-711
orts	-712
▁social	-713
▁partic	-714
▁cre	-715
ized	-716
▁aut	-717
▁governments	-718
▁foreign	-719
▁seem	-720
rat	-721
▁good	-722
▁appro	-723
▁kn	-724
▁energy	-725
▁ext	-726
▁ger	-727
▁example	-728
dp	-729
round	-730
▁too	-731
les	-732
pr	-733
▁region	-734
▁since	-735
▁challen	-736
gest	-737
▁union	-738
▁ir	-739
▁strate	-740
ging	-741
▁indeed	-742
▁become	-743
▁rates	-744
ract	-745
ically	-746
▁still	-747
▁bu	-748
▁est	-749
▁prot	-750
▁yet	-751
ram	-752
iness	-753
▁make	-754
urity	-755
▁cour	-756
▁bas	-757
fere	-758
▁important	-759
▁sol	-760
▁suc	-761
▁fail	-762
▁emer	-763
▁emp	-764
▁every	-765
ting	-766
ving	-767
▁german	-768
▁offic	-769
▁demand	-770
gan	-771
ts	-772
▁fut	-773
▁val	-774
ink	-775
▁economies	-776
▁commun	-777
▁par	-778
▁climate	-779
▁serv	-780
▁back	-781
▁rest	-782
apan	-783
ready	-784
▁dom	-785
▁ed	-786
▁sou	-787
▁already	-788
xt	-789
term	-790
▁does	-791
ered	-792
ending	-793
ater	-794
ood	-795
▁policies	-796
▁bene	-797
▁technolog	-798
ather	-799
▁risk	-800
▁gdp	-801
▁put	-802
lish	-803
▁human	-804
▁japan	-805
over	-806
▁future	-807
▁arg	-808
ense	-809
als	-810
ft	-811
▁compan	-812
▁indust	-813
ision	-814
▁ret	-815
ved	-816
▁med	-817
ays	-818
▁el	-819
fore	-820
▁sm	-821
▁equ	-822
▁const	-823
▁consum	-824
▁prom	-825
▁brit	-826
,”	-827
▁monet	-828
▁security	-829
▁iss	-830
▁cred	-831
▁without	-832
ians	-833
▁rate	-834
▁bel	-835
ck	-836
ually	-837
▁business	-838
▁ins	-839
▁west	-840
▁fis	-841
ning	-842
▁milit	-843
0%	-844
▁russia	-845
▁same	-846
▁billion	-847
▁level	-848
▁strong	-849
▁ann	-850
ingly	-851
▁leg	-852
arch	-853
other	-854
zone	-855
▁uk	-856
▁main	-857
▁monetary	-858
▁low	-859
ortun	-860
▁use	-861
▁fed	-862
▁ser	-863
▁problem	-864
ents	-865
rol	-866
ially	-867
▁3	-868
▁pur	-869
▁set	-870
▁regul	-871
iew	-872
eration	-873
▁fiscal	-874
ov	-875
▁differe	-876
ctor	-877
▁benef	-878
▁elect	-879
▁product	-880
▁es	-881
▁trump	-882
▁being	-883
▁africa	-884
ants	-885
ality	-886
rast	-887
▁likely	-888
▁op	-889
▁priv	-890
▁another	-891
ouse	-892
▁car	-893
not	-894
ared	-895
ead	-896
▁might	-897
▁disc	-898
▁educ	-899
▁consid	-900
▁take	-901
▁american	-902
),	-903
ably	-904
▁short	-905
ily	-906
).	-907
ten	-908
ges	-909
▁mod	-910
inc	-911
▁ph	-912
▁prices	-913
ger	-914
oss	-915
▁mid	-916
▁asia	-917
▁decl	-918
ency	-919
▁see	-920
ening	-921
thing	-922
ior	-923
▁env	-924
▁given	-925
abor	-926
▁approach	-927
imes	-928
mental	-929
▁then	-930
▁better	-931
▁particul	-932
ling	-933
ivers	-934
▁south	-935
▁made	-936
▁point	-937
▁agree	-938
▁compet	-939
tern	-940
▁including	-941
bers	-942
▁bre	-943
▁vot	-944
▁threat	-945
▁call	-946
▁success	-947
▁reas	-948
stain	-949
▁stand	-950
▁east	-951
▁military	-952
▁down	-953
▁aff	-954
▁eurozone	-955
▁india	-956
▁fac	-957
▁neg	-958
▁sustain	-959
▁impro	-960
ged	-961
ieve	-962
▁pers	-963
▁clo	-964
▁job	-965
▁cannot	-966
▁expect	-967
iron	-968
ertain	-969
▁ant	-970
▁though	-971
▁environ	-972
▁poss	-973
▁three	-974
eg	-975
▁hist	-976
▁quest	-977
▁law	-978
▁dire	-979
▁start	-980
▁know	-981
cond	-982
hor	-983
▁bro	-984
ss	-985
▁ine	-986
▁dist	-987
▁toward	-988
pl	-989
▁dr	-990
▁did	-991
▁gu	-992
▁ide	-993
▁terr	-994
uel	-995
less	-996
ness	-997
rency	-998
ined	-999
ience	-1000
▁often	-1001
▁ap	-1002
▁million	-1003
▁companies	-1004
▁av	-1005
▁prop	-1006
▁among	-1007
ructure	-1008
cept	-1009
land	-1010
▁plan	-1011
loyment	-1012
▁germany	-1013
▁whe	-1014
▁rather	-1015
ork	-1016
▁account	-1017
▁course	-1018
hold	-1019
▁few	-1020
ollow	-1021
▁move	-1022
▁process	-1023
ier	-1024
ever	-1025
racy	-1026
▁nat	-1027
▁before	-1028
▁sch	-1029
ves	-1030
ines	-1031
▁imm	-1032
▁protect	-1033
▁loc	-1034
▁order	-1035
aly	-1036
▁col	-1037
lement	-1038
ources	-1039
▁pot	-1040
▁follow	-1041
ute	-1042
▁child	-1043
ury	-1044
▁democrat	-1045
ately	-1046
▁turn	-1047
▁bor	-1048
▁eng	-1049
▁pay	-1050
▁key	-1051
▁past	-1052
▁whether	-1053
ick	-1054
ivity	-1055
▁meas	-1056
uclear	-1057
▁allow	-1058
▁next	-1059
▁official	-1060
▁spec	-1061
▁second	-1062
▁view	-1063
cing	-1064
▁tar	-1065
▁bal	-1066
▁around	-1067
▁address	-1068
▁rul	-1069
▁institutions	-1070
▁treat	-1071
ross	-1072
ened	-1073
self	-1074
▁lim	-1075
ablish	-1076
▁author	-1077
▁moreover	-1078
ocus	-1079
▁ens	-1080
▁very	-1081
▁lib	-1082
ades	-1083
▁why	-1084
iving	-1085
▁control	-1086
▁vi	-1087
▁private	-1088
▁eas	-1089
▁nuclear	-1090
▁income	-1091
por	-1092
▁asse	-1093
▁opportun	-1094
▁least	-1095
stand	-1096
▁mean	-1097
com	-1098
▁labor	-1099
▁developing	-1100
▁inflation	-1101
uge	-1102
ivid	-1103
osed	-1104
▁ren	-1105
▁chang	-1106
▁during	-1107
▁house	-1108
ash	-1109
▁focus	-1110
dle	-1111
▁fur	-1112
▁increase	-1113
▁ach	-1114
▁iran	-1115
▁press	-1116
▁exper	-1117
▁domest	-1118
roup	-1119
▁inn	-1120
io	-1121
ued	-1122
ollar	-1123
rem	-1124
▁party	-1125
most	-1126
▁weak	-1127
▁role	-1128
itions	-1129
▁consider	-1130
ying	-1131
▁hard	-1132
▁potential	-1133
forms	-1134
▁project	-1135
▁num	-1136
vere	-1137
▁199	-1138
▁credit	-1139
▁lif	-1140
▁5	-1141
▁my	-1142
▁education	-1143
ph	-1144
▁reform	-1145
ds	-1146
▁rise	-1147
rug	-1148
▁needs	-1149
▁big	-1150
▁ful	-1151
▁organ	-1152
▁further	-1153
▁members	-1154
oney	-1155
▁effective	-1156
▁fe	-1157
▁ca	-1158
▁form	-1159
▁problems	-1160
▁prof	-1161
▁defic	-1162
▁establish	-1163
▁play	-1164
▁higher	-1165
▁domestic	-1166
▁simil	-1167
ittle	-1168
ages	-1169
▁er	-1170
▁model	-1171
ron	-1172
▁beh	-1173
omen	-1174
▁del	-1175
lection	-1176
ances	-1177
▁peace	-1178
gin	-1179
ister	-1180
▁middle	-1181
▁rese	-1182
ibility	-1183
▁little	-1184
▁signific	-1185
▁money	-1186
aps	-1187
▁group	-1188
ama	-1189
pecially	-1190
▁mat	-1191
▁case	-1192
▁dollar	-1193
▁bl	-1194
▁emerging	-1195
thers	-1196
change	-1197
▁free	-1198
▁share	-1199
ix	-1200
▁you	-1201
▁accord	-1202
▁clear	-1203
olution	-1204
▁crit	-1205
pid	-1206
▁cit	-1207
▁run	-1208
▁sector	-1209
▁services	-1210
▁bar	-1211
▁however	-1212
▁progress	-1213
▁remains	-1214
▁gener	-1215
▁industr	-1216
ted	-1217
▁hal	-1218
▁needed	-1219
▁societ	-1220
▁kore	-1221
akes	-1222
▁simp	-1223
▁especially	-1224
air	-1225
▁different	-1226
ission	-1227
ner	-1228
ases	-1229
▁costs	-1230
ock	-1231
aim	-1232
itional	-1233
▁month	-1234
▁concern	-1235
▁innov	-1236
▁significant	-1237
▁init	-1238
▁reason	-1239
▁meet	-1240
▁cut	-1241
itive	-1242
▁har	-1243
▁pros	-1244
▁continue	-1245
ficult	-1246
▁small	-1247
formation	-1248
▁4	-1249
verage	-1250
▁difficult	-1251
▁tur	-1252
ri	-1253
the	-1254
▁non	-1255
▁access	-1256
imin	-1257
▁come	-1258
▁thus	-1259
▁democracy	-1260
te	-1261
rael	-1262
de	-1263
▁show	-1264
▁spending	-1265
ogn	-1266
▁fall	-1267
▁desp	-1268
▁poor	-1269
▁build	-1270
▁efforts	-1271
▁means	-1272
▁her	-1273
anced	-1274
▁decades	-1275
▁currency	-1276
▁within	-1277
▁relations	-1278
▁reach	-1279
cies	-1280
▁price	-1281
gth	-1282
ides	-1283
▁stud	-1284
idence	-1285
▁respons	-1286
▁almost	-1287
cc	-1288
▁minister	-1289
▁local	-1290
▁get	-1291
▁happ	-1292
ering	-1293
▁mar	-1294
▁deep	-1295
▁mass	-1296
▁cond	-1297
▁found	-1298
▁infrast	-1299
▁increasingly	-1300
acy	-1301
▁oil	-1302
▁integ	-1303
▁infrastructure	-1304
▁suff	-1305
▁rights	-1306
istan	-1307
izing	-1308
▁citiz	-1309
▁target	-1310
▁reforms	-1311
▁gain	-1312
▁recently	-1313
gress	-1314
▁care	-1315
▁appe	-1316
▁sing	-1317
▁israel	-1318
▁conflic	-1319
▁say	-1320
▁slow	-1321
▁don	-1322
▁growing	-1323
▁ec	-1324
▁research	-1325
▁prevent	-1326
oti	-1327
▁obama	-1328
▁strateg	-1329
way	-1330
ators	-1331
▁requi	-1332
sequ	-1333
▁question	-1334
▁bud	-1335
▁longer	-1336
▁shif	-1337
▁ago	-1338
▁serious	-1339
▁others	-1340
▁women	-1341
ata	-1342
▁require	-1343
▁strategy	-1344
rength	-1345
▁cle	-1346
▁resources	-1347
▁strength	-1348
▁ge	-1349
vious	-1350
▁face	-1351
▁challenges	-1352
000	-1353
▁ur	-1354
icient	-1355
▁recogn	-1356
▁return	-1357
up	-1358
▁common	-1359
▁z	-1360
▁ear	-1361
▁char	-1362
▁hold	-1363
▁lower	-1364
▁despite	-1365
▁best	-1366
▁moder	-1367
▁itself	-1368
,000	-1369
ession	-1370
▁never	-1371
▁find	-1372
▁greater	-1373
ale	-1374
5%	-1375
ake	-1376
▁bra	-1377
▁viol	-1378
▁seems	-1379
▁think	-1380
ave	-1381
▁claim	-1382
▁cho	-1383
▁fam	-1384
▁negoti	-1385
▁benefits	-1386
▁rapid	-1387
iver	-1388
▁admin	-1389
▁pat	-1390
▁investors	-1391
▁lack	-1392
▁member	-1393
▁post	-1394
▁enough	-1395
▁population	-1396
reed	-1397
ention	-1398
▁workers	-1399
▁citizens	-1400
▁comple	-1401
▁report	-1402
▁particularly	-1403
ush	-1404
epend	-1405
▁contrib	-1406
▁want	-1407
▁impact	-1408
acc	-1409
▁sw	-1410
rab	-1411
▁civ	-1412
▁lat	-1413
ences	-1414
▁coop	-1415
▁according	-1416
▁budget	-1417
▁understand	-1418
elf	-1419
▁gr	-1420
20	-1421
▁pred	-1422
gether	-1423
akers	-1424
▁administ	-1425
▁agreement	-1426
ising	-1427
▁france	-1428
▁stability	-1429
▁each	-1430
▁interests	-1431
▁terms	-1432
ased	-1433
▁tal	-1434
▁caus	-1435
▁sav	-1436
▁camp	-1437
▁risks	-1438
▁wr	-1439
▁sug	-1440
▁data	-1441
▁deal	-1442
▁election	-1443
ners	-1444
▁direct	-1445
ex	-1446
ided	-1447
▁half	-1448
ensive	-1449
▁exchange	-1450
▁broad	-1451
▁mult	-1452
ned	-1453
▁value	-1454
▁li	-1455
ises	-1456
▁coll	-1457
▁finance	-1458
▁6	-1459
▁children	-1460
ool	-1461
▁four	-1462
▁hand	-1463
▁certain	-1464
go	-1465
▁home	-1466
▁open	-1467
▁fl	-1468
ining	-1469
▁bond	-1470
sh	-1471
ret	-1472
▁policym	-1473
ird	-1474
▁used	-1475
▁number	-1476
▁spe	-1477
where	-1478
▁civil	-1479
▁unt	-1480
▁once	-1481
atic	-1482
selves	-1483
▁occ	-1484
▁land	-1485
▁rising	-1486
▁suggest	-1487
nce	-1488
▁depend	-1489
to	-1490
empt	-1491
▁gree	-1492
▁reduce	-1493
▁she	-1494
ither	-1495
▁oper	-1496
ipl	-1497
ming	-1498
▁create	-1499
▁korea	-1500
▁britain	-1501
▁implement	-1502
▁force	-1503
▁democratic	-1504
▁western	-1505
▁ho	-1506
ateral	-1507
tain	-1508
▁provide	-1509
▁relative	-1510
▁fear	-1511
▁step	-1512
atives	-1513
▁north	-1514
▁leadership	-1515
den	-1516
▁youn	-1517
▁jobs	-1518
▁net	-1519
▁left	-1520
▁rules	-1521
▁ensure	-1522
ield	-1523
rate	-1524
▁arab	-1525
▁measures	-1526
cl	-1527
▁improve	-1528
▁univers	-1529
▁cult	-1530
like	-1531
▁life	-1532
▁consequ	-1533
▁possible	-1534
▁reflect	-1535
▁regional	-1536
▁former	-1537
▁instead	-1538
▁anti	-1539
▁repres	-1540
▁british	-1541
▁together	-1542
▁politics	-1543
▁gre	-1544
ised	-1545
▁him	-1546
▁action	-1547
▁levels	-1548
iod	-1549
▁place	-1550
▁individ	-1551
0.	-1552
▁cy	-1553
▁times	-1554
▁struct	-1555
▁program	-1556
▁dev	-1557
▁food	-1558
▁stat	-1559
▁initi	-1560
▁terror	-1561
oura	-1562
▁purs	-1563
▁republic	-1564
▁enc	-1565
▁begin	-1566
vention	-1567
▁ever	-1568
▁fuel	-1569
▁challenge	-1570
▁technology	-1571
aged	-1572
verty	-1573
▁true	-1574
▁poverty	-1575
▁blo	-1576
lam	-1577
ived	-1578
▁2008	-1579
just	-1580
bon	-1581
▁systems	-1582
▁across	-1583
ards	-1584
▁funda	-1585
▁x	-1586
▁five	-1587
haps	-1588
▁federal	-1589
▁individual	-1590
▁disp	-1591
▁rich	-1592
▁making	-1593
▁dou	-1594
▁gra	-1595
come	-1596
▁household	-1597
▁commit	-1598
▁consumption	-1599
▁balance	-1600
▁deb	-1601
▁boost	-1602
yond	-1603
▁influ	-1604
rop	-1605
ified	-1606
oid	-1607
▁look	-1608
▁perhaps	-1609
▁independ	-1610
▁sl	-1611
▁fight	-1612
▁corpor	-1613
▁dang	-1614
▁news	-1615
▁prime	-1616
▁beyond	-1617
▁similar	-1618
▁aust	-1619
▁dest	-1620
▁productivity	-1621
lation	-1622
▁sum	-1623
▁manage	-1624
ceed	-1625
▁decision	-1626
▁attack	-1627
abil	-1628
▁comb	-1629
aken	-1630
▁politic	-1631
iate	-1632
▁head	-1633
▁exist	-1634
▁ru	-1635
ilateral	-1636
▁history	-1637
▁mig	-1638
▁wealth	-1639
side	-1640
▁annual	-1641
▁themselves	-1642
▁saf	-1643
cent	-1644
▁issues	-1645
emp	-1646
▁syr	-1647
▁firms	-1648
▁increased	-1649
issions	-1650
▁refuge	-1651
▁community	-1652
▁policymakers	-1653
ove	-1654
▁early	-1655
ec	-1656
ban	-1657
ugh	-1658
acity	-1659
▁dra	-1660
▁old	-1661
▁based	-1662
▁water	-1663
▁simply	-1664
▁pract	-1665
▁accept	-1666
dom	-1667
istic	-1668
▁aid	-1669
▁emb	-1670
▁administration	-1671
▁partners	-1672
▁sever	-1673
▁necess	-1674
▁officials	-1675
▁dam	-1676
rench	-1677
▁young	-1678
uation	-1679
▁modern	-1680
▁7	-1681
▁bring	-1682
ler	-1683
▁society	-1684
▁developed	-1685
▁sure	-1686
though	-1687
▁information	-1688
▁sk	-1689
▁mor	-1690
▁tot	-1691
▁extrem	-1692
▁ukra	-1693
▁commission	-1694
ys	-1695
▁environmental	-1696
▁top	-1697
▁dise	-1698
▁borrow	-1699
aign	-1700
erve	-1701
king	-1702
▁period	-1703
▁until	-1704
▁conflict	-1705
ug	-1706
▁unlike	-1707
▁campaign	-1708
▁liberal	-1709
iation	-1710
▁constit	-1711
▁islam	-1712
▁ty	-1713
▁able	-1714
▁believe	-1715
ways	-1716
▁export	-1717
▁sense	-1718
▁amount	-1719
▁nations	-1720
▁sustainable	-1721
▁keep	-1722
▁century	-1723
▁cooperation	-1724
rupt	-1725
ruption	-1726
▁achieve	-1727
▁rece	-1728
▁school	-1729
▁several	-1730
▁deter	-1731
quality	-1732
▁decade	-1733
▁forces	-1734
▁working	-1735
cial	-1736
▁bur	-1737
▁coal	-1738
zil	-1739
▁becom	-1740
▁led	-1741
▁person	-1742
▁promot	-1743
▁revolution	-1744
▁den	-1745
▁single	-1746
raq	-1747
▁sovere	-1748
▁encoura	-1749
▁maintain	-1750
▁industrial	-1751
ina	-1752
▁else	-1753
▁advanced	-1754
▁loss	-1755
▁entire	-1756
mit	-1757
ton	-1758
▁third	-1759
▁average	-1760
▁close	-1761
ee	-1762
cil	-1763
nam	-1764
▁sit	-1765
▁adop	-1766
▁iraq	-1767
isions	-1768
bi	-1769
key	-1770
xit	-1771
fact	-1772
▁areas	-1773
▁general	-1774
▁unemp	-1775
ently	-1776
▁banking	-1777
ins	-1778
▁unf	-1779
▁largest	-1780
iting	-1781
▁effects	-1782
▁aim	-1783
▁expl	-1784
▁opportunity	-1785
ief	-1786
ource	-1787
▁hope	-1788
▁issue	-1789
by	-1790
ium	-1791
med	-1792
▁eth	-1793
▁changes	-1794
▁deficit	-1795
▁conditions	-1796
▁shar	-1797
utional	-1798
▁congress	-1799
bor	-1800
onse	-1801
▁mac	-1802
▁avoid	-1803
▁total	-1804
▁regard	-1805
▁regime	-1806
▁ecb	-1807
illions	-1808
▁creat	-1809
▁tro	-1810
arent	-1811
▁parl	-1812
▁rule	-1813
▁employment	-1814
▁abs	-1815
▁pressure	-1816
▁economists	-1817
aster	-1818
ively	-1819
▁danger	-1820
▁environment	-1821
▁198	-1822
ination	-1823
▁parties	-1824
▁industry	-1825
▁position	-1826
ai	-1827
▁day	-1828
▁oppos	-1829
▁king	-1830
rodu	-1831
▁supply	-1832
az	-1833
pped	-1834
▁brazil	-1835
▁expand	-1836
ify	-1837
▁response	-1838
uing	-1839
▁histor	-1840
▁parlia	-1841
▁politicians	-1842
wise	-1843
▁bad	-1844
▁committ	-1845
▁represent	-1846
gypt	-1847
▁ess	-1848
ufact	-1849
▁asian	-1850
▁production	-1851
be	-1852
arian	-1853
▁test	-1854
▁full	-1855
▁requires	-1856
ival	-1857
▁egypt	-1858
▁having	-1859
▁capacity	-1860
▁emissions	-1861
0’	-1862
▁cal	-1863
ression	-1864
▁manufact	-1865
ven	-1866
▁done	-1867
▁vict	-1868
▁innovation	-1869
▁structural	-1870
▁italy	-1871
▁consequences	-1872
ctions	-1873
▁event	-1874
rated	-1875
▁subst	-1876
▁african	-1877
▁pal	-1878
▁lear	-1879
▁excess	-1880
▁turkey	-1881
▁created	-1882
▁massive	-1883
▁ten	-1884
▁effort	-1885
▁strategic	-1886
▁air	-1887
▁unc	-1888
▁stock	-1889
lus	-1890
▁clos	-1891
incip	-1892
▁ident	-1893
▁exports	-1894
▁predict	-1895
▁always	-1896
▁death	-1897
▁media	-1898
▁shift	-1899
▁princip	-1900
ricult	-1901
▁nearly	-1902
aging	-1903
▁assum	-1904
down	-1905
based	-1906
▁drug	-1907
▁kind	-1908
▁self	-1909
▁8	-1910
sid	-1911
▁flow	-1912
▁scient	-1913
▁mus	-1914
▁poll	-1915
▁taken	-1916
ruction	-1917
▁ukraine	-1918
▁agricult	-1919
▁unemployment	-1920
ended	-1921
▁leading	-1922
▁americans	-1923
▁vis	-1924
▁push	-1925
▁greece	-1926
▁voters	-1927
ne	-1928
▁invol	-1929
▁called	-1930
▁coun	-1931
▁failed	-1932
▁perform	-1933
imul	-1934
wide	-1935
iplom	-1936
▁alone	-1937
▁doing	-1938
▁dig	-1939
market	-1940
aw	-1941
overy	-1942
▁funds	-1943
▁diplom	-1944
uted	-1945
▁bush	-1946
atory	-1947
▁finally	-1948
▁said	-1949
▁immig	-1950
▁brexit	-1951
▁decline	-1952
▁trillion	-1953
▁san	-1954
▁vol	-1955
▁parliament	-1956
▁fram	-1957
▁authorities	-1958
iveness	-1959
▁altern	-1960
▁transp	-1961
▁appear	-1962
ah	-1963
sw	-1964
▁prob	-1965
▁french	-1966
▁stimul	-1967
ills	-1968
ured	-1969
▁proper	-1970
▁prosper	-1971
lt	-1972
▁whose	-1973
▁defense	-1974
▁largely	-1975
▁respect	-1976
▁term	-1977
▁agend	-1978
▁cause	-1979
▁expected	-1980
▁mis	-1981
▁cities	-1982
▁inequality	-1983
▁prec	-1984
▁ways	-1985
▁although	-1986
▁makes	-1987
▁soon	-1988
lim	-1989
reg	-1990
▁ce	-1991
▁opt	-1992
▁cat	-1993
▁ult	-1994
▁neigh	-1995
▁counter	-1996
▁successful	-1997
0,	-1998
ll	-1999
▁afgh	-2000
▁win	-2001
▁object	-2002
ends	-2003
rams	-2004
▁fav	-2005
▁goods	-2006
▁attempt	-2007
▁essential	-2008
▁particular	-2009
▁values	-2010
▁recession	-2011
▁class	-2012
▁projects	-2013
▁technologies	-2014
rec	-2015
line	-2016
▁assets	-2017
▁fra	-2018
▁tem	-2019
alled	-2020
ondon	-2021
▁lives	-2022
▁leader	-2023
lev	-2024
▁london	-2025
▁governance	-2026
▁increasing	-2027
rid	-2028
▁ill	-2029
ected	-2030
▁kingdom	-2031
▁natural	-2032
▁integration	-2033
▁incent	-2034
▁investments	-2035
▁council	-2036
▁powerful	-2037
▁experience	-2038
▁fundamental	-2039
ik	-2040
ctors	-2041
▁path	-2042
▁afghan	-2043
▁popular	-2044
▁opportunities	-2045
mal	-2046
▁activ	-2047
▁began	-2048
▁mer	-2049
▁che	-2050
▁mal	-2051
▁months	-2052
▁mom	-2053
▁gas	-2054
▁2015	-2055
▁owing	-2056
▁respond	-2057
▁particip	-2058
ories	-2059
▁ah	-2060
thern	-2061
▁lost	-2062
▁ability	-2063
▁programs	-2064
mb	-2065
▁reven	-2066
▁worse	-2067
▁quick	-2068
istance	-2069
fer	-2070
▁var	-2071
▁prior	-2072
▁palest	-2073
▁obs	-2074
▁adjust	-2075
cer	-2076
ternal	-2077
▁bonds	-2078
mber	-2079
unch	-2080
▁tren	-2081
▁along	-2082
ring	-2083
▁york	-2084
▁influence	-2085
▁weap	-2086
▁domin	-2087
▁design	-2088
▁port	-2089
▁later	-2090
▁agenda	-2091
▁197	-2092
while	-2093
▁traditional	-2094
▁cam	-2095
▁vir	-2096
▁failure	-2097
▁elections	-2098
▁goal	-2099
▁comes	-2100
▁freed	-2101
▁behind	-2102
ma	-2103
▁met	-2104
rants	-2105
▁relationship	-2106
ane	-2107
▁debate	-2108
lies	-2109
▁idea	-2110
▁violence	-2111
put	-2112
arily	-2113
▁away	-2114
▁road	-2115
▁using	-2116
▁taking	-2117
▁recovery	-2118
▁financing	-2119
xic	-2120
ream	-2121
▁enter	-2122
▁highly	-2123
▁sen	-2124
▁groups	-2125
▁necessary	-2126
▁corruption	-2127
irc	-2128
▁advant	-2129
▁nothing	-2130
▁evidence	-2131
▁external	-2132
▁unp	-2133
▁prim	-2134
▁9	-2135
omp	-2136
oint	-2137
▁propos	-2138
▁russian	-2139
hood	-2140
▁amb	-2141
▁moment	-2142
iding	-2143
▁previous	-2144
▁won	-2145
ously	-2146
▁none	-2147
▁break	-2148
▁either	-2149
▁framew	-2150
▁treaty	-2151
▁confron	-2152
1,	-2153
year	-2154
▁chance	-2155
rad	-2156
▁xi	-2157
▁pass	-2158
▁achie	-2159
▁estim	-2160
force	-2161
akistan	-2162
lying	-2163
▁green	-2164
▁wrong	-2165
chan	-2166
▁rad	-2167
▁indic	-2168
▁surpr	-2169
▁syria	-2170
▁status	-2171
▁attention	-2172
set	-2173
▁rat	-2174
▁conv	-2175
▁probably	-2176
ien	-2177
▁mob	-2178
▁freedom	-2179
ledge	-2180
ulner	-2181
▁coming	-2182
▁things	-2183
▁clearly	-2184
▁reserve	-2185
▁meeting	-2186
▁following	-2187
▁demon	-2188
▁discuss	-2189
▁contrast	-2190
▁majority	-2191
he	-2192
▁wide	-2193
▁benefit	-2194
▁farm	-2195
▁actually	-2196
ember	-2197
▁live	-2198
▁rein	-2199
▁putin	-2200
▁mechan	-2201
▁secret	-2202
bo	-2203
ored	-2204
▁imf	-2205
ented	-2206
right	-2207
▁asset	-2208
▁substant	-2209
▁und	-2210
▁give	-2211
▁here	-2212
▁living	-2213
▁record	-2214
▁territ	-2215
▁complex	-2216
▁solution	-2217
▁vulner	-2218
▁ultimate	-2219
▁competition	-2220
▁wee	-2221
▁answ	-2222
▁uncertain	-2223
▁jud	-2224
▁above	-2225
▁occur	-2226
▁corporate	-2227
ont	-2228
▁dy	-2229
▁art	-2230
▁argu	-2231
▁taxes	-2232
▁pa	-2233
minbi	-2234
▁analy	-2235
▁pakistan	-2236
▁protection	-2237
▁carbon	-2238
▁extreme	-2239
▁reality	-2240
▁-	-2241
iance	-2242
▁avail	-2243
▁larger	-2244
▁digital	-2245
▁science	-2246
▁renminbi	-2247
ris	-2248
▁nar	-2249
▁som	-2250
▁behav	-2251
▁legal	-2252
▁meanwhile	-2253
▁let	-2254
▁feel	-2255
▁plac	-2256
▁cases	-2257
▁include	-2258
rel	-2259
ones	-2260
▁manufacturing	-2261
▁pow	-2262
erves	-2263
▁read	-2264
izations	-2265
▁reducing	-2266
co	-2267
▁huge	-2268
▁immed	-2269
▁legit	-2270
▁decisions	-2271
▁organization	-2272
rep	-2273
here	-2274
▁sea	-2275
▁relig	-2276
▁solutions	-2277
▁1.	-2278
▁seen	-2279
▁favor	-2280
▁attract	-2281
▁prospect	-2282
▁refugees	-2283
ape	-2284
olit	-2285
▁circ	-2286
econom	-2287
ulation	-2288
▁expert	-2289
▁situation	-2290
▁center	-2291
▁conserv	-2292
▁continent	-2293
oph	-2294
▁kill	-2295
▁renew	-2296
▁demonst	-2297
▁cru	-2298
▁vote	-2299
▁collect	-2300
▁europeans	-2301
▁miss	-2302
▁argent	-2303
▁muslim	-2304
▁limited	-2305
▁urban	-2306
▁expans	-2307
▁movement	-2308
▁ve	-2309
▁globalization	-2310
▁near	-2311
itarian	-2312
▁elsewhere	-2313
▁standards	-2314
eren	-2315
▁late	-2316
▁subsid	-2317
tle	-2318
▁easy	-2319
1.	-2320
ony	-2321
▁ign	-2322
▁resol	-2323
rugg	-2324
▁employ	-2325
▁commitment	-2326
itable	-2327
▁ground	-2328
▁willing	-2329
ets	-2330
omb	-2331
▁announ	-2332
▁strugg	-2333
▁special	-2334
▁relatively	-2335
called	-2336
▁purch	-2337
▁businesses	-2338
par	-2339
income	-2340
▁became	-2341
▁obvious	-2342
▁afghanistan	-2343
orm	-2344
sec	-2345
ters	-2346
▁six	-2347
▁words	-2348
lin	-2349
que	-2350
arant	-2351
▁heav	-2352
▁sharp	-2353
▁really	-2354
▁something	-2355
ished	-2356
rought	-2357
utes	-2358
▁arr	-2359
▁uns	-2360
▁concerns	-2361
agn	-2362
▁disease	-2363
▁produce	-2364
▁millions	-2365
▁alternative	-2366
leg	-2367
ension	-2368
▁weapons	-2369
▁ste	-2370
▁overall	-2371
▁powers	-2372
▁certainly	-2373
▁established	-2374
▁held	-2375
▁hous	-2376
▁currently	-2377
▁economics	-2378
▁framework	-2379
ired	-2380
ung	-2381
plus	-2382
▁2013	-2383
ification	-2384
▁palestin	-2385
▁worldwide	-2386
rict	-2387
▁leav	-2388
▁assoc	-2389
▁guarant	-2390
▁took	-2391
▁deficits	-2392
ensus	-2393
▁goals	-2394
▁paris	-2395
▁quickly	-2396
▁expansion	-2397
▁presidential	-2398
ody	-2399
ception	-2400
▁insur	-2401
▁explain	-2402
▁products	-2403
▁households	-2404
ald	-2405
▁creating	-2406
▁confidence	-2407
▁generation	-2408
▁performance	-2409
▁negotiations	-2410
use	-2411
▁mind	-2412
▁internet	-2413
▁hy	-2414
hing	-2415
▁severe	-2416
▁known	-2417
▁vision	-2418
▁age	-2419
iated	-2420
▁mist	-2421
▁latin	-2422
▁spain	-2423
▁surplus	-2424
50	-2425
▁rough	-2426
▁introdu	-2427
▁industries	-2428
viet	-2429
▁div	-2430
▁fair	-2431
▁tool	-2432
▁legis	-2433
▁consumer	-2434
▁positive	-2435
▁opposition	-2436
▁technological	-2437
ici	-2438
olic	-2439
▁jour	-2440
▁line	-2441
▁unlikely	-2442
▁sovereign	-2443
eu	-2444
▁2014	-2445
ancing	-2446
▁leave	-2447
▁crises	-2448
▁launch	-2449
ological	-2450
▁funding	-2451
▁sectors	-2452
▁continues	-2453
▁additional	-2454
▁offer	-2455
▁results	-2456
▁beginning	-2457
▁responsibility	-2458
osing	-2459
▁commod	-2460
▁critical	-2461
▁prosperity	-2462
rary	-2463
▁ask	-2464
▁ahead	-2465
▁institutional	-2466
kn	-2467
▁stop	-2468
▁matter	-2469
▁behavior	-2470
▁repl	-2471
▁sent	-2472
▁troub	-2473
▁twent	-2474
uth	-2475
▁red	-2476
▁existing	-2477
▁reserves	-2478
▁management	-2479
▁partnership	-2480
▁below	-2481
▁explo	-2482
▁building	-2483
▁organizations	-2484
ech	-2485
▁source	-2486
▁transition	-2487
▁sal	-2488
▁becoming	-2489
ij	-2490
loc	-2491
iment	-2492
▁consensus	-2493
ator	-2494
crib	-2495
quid	-2496
▁jun	-2497
▁boom	-2498
apse	-2499
▁fig	-2500
▁mort	-2501
▁phil	-2502
▁front	-2503
▁afford	-2504
2.	-2505
has	-2506
▁18	-2507
iter	-2508
▁men	-2509
▁typ	-2510
▁wat	-2511
erity	-2512
▁city	-2513
▁side	-2514
▁office	-2515
▁continued	-2516
▁trust	-2517
▁available	-2518
▁independence	-2519
-20	-2520
▁fle	-2521
▁rob	-2522
▁dram	-2523
▁host	-2524
▁scale	-2525
unction	-2526
▁output	-2527
▁everyone	-2528
▁unfortun	-2529
▁mess	-2530
▁doubt	-2531
▁mexic	-2532
▁caused	-2533
ular	-2534
▁pan	-2535
▁imper	-2536
▁spread	-2537
▁similarly	-2538
urs	-2539
ordin	-2540
▁basic	-2541
▁loans	-2542
▁company	-2543
▁reasons	-2544
▁recognize	-2545
▁initiative	-2546
▁sil	-2547
▁area	-2548
▁cand	-2549
▁link	-2550
▁dynam	-2551
▁gains	-2552
▁raise	-2553
▁factors	-2554
ya	-2555
ero	-2556
raph	-2557
▁det	-2558
▁gradu	-2559
▁equity	-2560
▁protest	-2561
omin	-2562
▁inev	-2563
▁contract	-2564
ots	-2565
ault	-2566
▁thing	-2567
▁outside	-2568
▁service	-2569
▁university	-2570
ees	-2571
▁distrib	-2572
▁q	-2573
equ	-2574
▁ber	-2575
▁sup	-2576
▁mere	-2577
▁surv	-2578
▁court	-2579
▁japanese	-2580
▁sanctions	-2581
2,	-2582
pping	-2583
▁minist	-2584
care	-2585
▁helped	-2586
▁forward	-2587
▁referen	-2588
▁roughly	-2589
▁washing	-2590
▁incentives	-2591
▁advantage	-2592
▁argentina	-2593
▁pen	-2594
ograph	-2595
▁outcome	-2596
▁creation	-2597
▁ultimately	-2598
%.	-2599
ann	-2600
dra	-2601
omes	-2602
▁soft	-2603
ressed	-2604
▁competit	-2605
▁stronger	-2606
acter	-2607
light	-2608
▁tend	-2609
▁study	-2610
▁answer	-2611
road	-2612
orders	-2613
▁divid	-2614
▁moral	-2615
▁emphas	-2616
▁imposs	-2617
▁enterpr	-2618
▁collapse	-2619
▁stimulus	-2620
▁austerity	-2621
▁regulatory	-2622
-1	-2623
part	-2624
▁came	-2625
▁exec	-2626
▁candid	-2627
▁facing	-2628
▁models	-2629
▁quality	-2630
▁rapidly	-2631
▁internal	-2632
▁negative	-2633
▁washington	-2634
lig	-2635
ature	-2636
▁macro	-2637
ilities	-2638
▁elimin	-2639
▁savings	-2640
▁bub	-2641
eless	-2642
▁worth	-2643
▁commer	-2644
▁unfortunately	-2645
▁cuts	-2646
▁summit	-2647
▁consumers	-2648
▁eventually	-2649
do	-2650
ites	-2651
▁flo	-2652
▁conn	-2653
▁eastern	-2654
aper	-2655
aring	-2656
▁liquid	-2657
▁warming	-2658
▁mark	-2659
▁flows	-2660
▁choice	-2661
▁soviet	-2662
uly	-2663
▁mot	-2664
aries	-2665
▁repe	-2666
▁bi	-2667
▁arm	-2668
▁rom	-2669
▁sus	-2670
action	-2671
▁famil	-2672
▁effectively	-2673
▁knowledge	-2674
▁throughout	-2675
▁communities	-2676
▁cross	-2677
▁assess	-2678
▁cancer	-2679
▁forced	-2680
▁implic	-2681
▁saving	-2682
▁allowed	-2683
▁borders	-2684
▁focused	-2685
▁housing	-2686
▁treatment	-2687
▁deg	-2688
gence	-2689
account	-2690
▁points	-2691
af	-2692
of	-2693
▁gap	-2694
▁skills	-2695
▁personal	-2696
▁impossible	-2697
7,	-2698
▁fort	-2699
erence	-2700
▁regulation	-2701
%,	-2702
ilt	-2703
lier	-2704
▁tas	-2705
▁fast	-2706
▁affect	-2707
▁contain	-2708
▁dangerous	-2709
unt	-2710
▁barack	-2711
▁referend	-2712
▁fix	-2713
ology	-2714
▁2016	-2715
▁geor	-2716
▁succeed	-2717
cle	-2718
work	-2719
ossil	-2720
▁basis	-2721
▁journ	-2722
▁required	-2723
ients	-2724
▁damage	-2725
▁normal	-2726
▁reached	-2727
▁determin	-2728
▁suggests	-2729
▁transform	-2730
emic	-2731
used	-2732
▁bat	-2733
▁enab	-2734
▁donald	-2735
▁aw	-2736
▁draw	-2737
▁shared	-2738
war	-2739
verse	-2740
economic	-2741
dr	-2742
▁hit	-2743
▁virt	-2744
▁ideas	-2745
▁activities	-2746
▁independent	-2747
▁sud	-2748
celer	-2749
encies	-2750
▁corre	-2751
▁extra	-2752
▁somet	-2753
▁reject	-2754
▁questions	-2755
iff	-2756
arter	-2757
▁super	-2758
▁vital	-2759
▁thereby	-2760
▁societies	-2761
sc	-2762
ery	-2763
kel	-2764
wor	-2765
▁0.	-2766
▁belie	-2767
▁engage	-2768
▁fossil	-2769
▁proposed	-2770
▁authority	-2771
▁intervention	-2772
reh	-2773
oring	-2774
▁fully	-2775
▁family	-2776
▁pursue	-2777
▁brought	-2778
▁dollars	-2779
▁electric	-2780
omm	-2781
ensions	-2782
▁claims	-2783
▁compared	-2784
▁immigration	-2785
els	-2786
▁ham	-2787
▁days	-2788
▁fell	-2789
▁losses	-2790
▁constra	-2791
▁experien	-2792
itud	-2793
▁engine	-2794
ustom	-2795
▁frag	-2796
▁harm	-2797
▁sell	-2798
opolit	-2799
▁autom	-2800
▁attacks	-2801
abilities	-2802
▁migration	-2803
▁secretary	-2804
▁urg	-2805
▁core	-2806
▁accomp	-2807
▁events	-2808
▁simple	-2809
▁ii	-2810
vert	-2811
▁critic	-2812
▁deliver	-2813
▁sources	-2814
▁contrary	-2815
off	-2816
val	-2817
ought	-2818
▁poore	-2819
ptember	-2820
rencies	-2821
theless	-2822
▁matters	-2823
▁vacc	-2824
▁surve	-2825
iciency	-2826
▁trading	-2827
▁cultural	-2828
oks	-2829
▁seek	-2830
▁clean	-2831
▁ai	-2832
ijing	-2833
▁pain	-2834
▁thinking	-2835
▁efficient	-2836
9,	-2837
▁15	-2838
▁border	-2839
▁unless	-2840
▁neither	-2841
▁reduced	-2842
▁increases	-2843
▁september	-2844
▁ken	-2845
▁reb	-2846
▁justice	-2847
▁committed	-2848
erc	-2849
▁list	-2850
▁argue	-2851
▁block	-2852
▁limit	-2853
▁widely	-2854
▁precise	-2855
ands	-2856
draw	-2857
▁hop	-2858
▁quant	-2859
▁construction	-2860
lands	-2861
▁allies	-2862
▁likewise	-2863
▁commodity	-2864
▁providing	-2865
ibly	-2866
▁mand	-2867
▁yield	-2868
▁agreed	-2869
▁targets	-2870
▁nature	-2871
▁falling	-2872
▁victory	-2873
▁convention	-2874
▁significantly	-2875
▁fo	-2876
▁fre	-2877
▁mut	-2878
▁sound	-2879
▁inclus	-2880
▁farmers	-2881
▁journal	-2882
▁regions	-2883
▁individuals	-2884
auc	-2885
▁fri	-2886
▁beijing	-2887
▁undermin	-2888
▁referendum	-2889
▁10%	-2890
▁nato	-2891
fficient	-2892
▁property	-2893
▁provided	-2894
▁withdraw	-2895
▁encourage	-2896
▁therefore	-2897
ext	-2898
pel	-2899
pro	-2900
umb	-2901
augh	-2902
▁scen	-2903
▁accounts	-2904
▁sometimes	-2905
▁agriculture	-2906
bors	-2907
▁enh	-2908
ional	-2909
▁minim	-2910
▁aggress	-2911
▁describ	-2912
▁islamic	-2913
▁legitim	-2914
▁strengthen	-2915
▁expectations	-2916
edly	-2917
ison	-2918
▁196	-2919
▁recon	-2920
▁trying	-2921
▁complete	-2922
▁bilateral	-2923
▁membership	-2924
ob	-2925
orn	-2926
duct	-2927
▁game	-2928
▁imag	-2929
▁trig	-2930
▁heart	-2931
▁parts	-2932
▁tight	-2933
▁affair	-2934
▁mexico	-2935
▁biggest	-2936
▁crucial	-2937
▁meaning	-2938
▁primary	-2939
▁thought	-2940
▁commercial	-2941
▁vulnerable	-2942
ott	-2943
arity	-2944
ellig	-2945
▁aimed	-2946
▁earlier	-2947
▁terrorism	-2948
uct	-2949
▁adap	-2950
▁opin	-2951
▁shows	-2952
▁actions	-2953
▁sufficient	-2954
app	-2955
angu	-2956
rest	-2957
▁stre	-2958
▁acceler	-2959
▁direction	-2960
▁multilateral	-2961
rant	-2962
▁era	-2963
astro	-2964
▁orig	-2965
▁phys	-2966
▁prep	-2967
▁save	-2968
▁vast	-2969
▁truth	-2970
▁stable	-2971
ried	-2972
▁camb	-2973
▁field	-2974
▁steps	-2975
▁indian	-2976
▁compreh	-2977
▁insurance	-2978
▁neighbors	-2979
ls	-2980
ars	-2981
▁name	-2982
▁wind	-2983
▁capit	-2984
▁embra	-2985
▁nation	-2986
atically	-2987
▁radical	-2988
▁intellig	-2989
house	-2990
▁custom	-2991
▁seeking	-2992
▁communist	-2993
▁uncertainty	-2994
▁2.	-2995
polic	-2996
▁minor	-2997
▁burden	-2998
▁latest	-2999
▁promote	-3000
▁apparent	-3001
▁directly	-3002
▁geopolit	-3003
hn	-3004
sy	-3005
antic	-3006
▁2000	-3007
atever	-3008
sector	-3009
▁faces	-3010
▁thous	-3011
▁limits	-3012
▁difference	-3013
▁importance	-3014
..	-3015
aff	-3016
gen	-3017
cont	-3018
▁ban	-3019
▁laws	-3020
▁plat	-3021
ishing	-3022
▁trend	-3023
▁standard	-3024
▁responsible	-3025
▁understanding	-3026
fully	-3027
policy	-3028
aterial	-3029
▁character	-3030
iety	-3031
▁purp	-3032
▁reve	-3033
ortion	-3034
▁displ	-3035
▁partly	-3036
▁secure	-3037
▁default	-3038
▁facilit	-3039
cast	-3040
▁cold	-3041
▁zero	-3042
▁imbal	-3043
▁whole	-3044
▁planet	-3045
▁seemed	-3046
▁speech	-3047
▁culture	-3048
▁leaving	-3049
▁supposed	-3050
aced	-3051
undred	-3052
▁aband	-3053
▁fortun	-3054
▁bankers	-3055
▁consist	-3056
▁followed	-3057
▁religious	-3058
▁politically	-3059
sels	-3060
ocrat	-3061
▁dece	-3062
ulated	-3063
▁board	-3064
▁solid	-3065
▁story	-3066
▁enable	-3067
▁margin	-3068
▁theory	-3069
▁hundred	-3070
▁pattern	-3071
▁strategies	-3072
▁30	-3073
olid	-3074
▁193	-3075
▁wid	-3076
▁argued	-3077
▁scenar	-3078
▁otherwise	-3079
▁competitive	-3080
-2	-3081
▁abroad	-3082
▁democrats	-3083
▁pollution	-3084
mar	-3085
▁ord	-3086
uting	-3087
▁bure	-3088
▁cash	-3089
making	-3090
▁deflation	-3091
eria	-3092
▁book	-3093
▁sens	-3094
▁rural	-3095
▁faster	-3096
▁option	-3097
▁abandon	-3098
▁students	-3099
jo	-3100
ety	-3101
iph	-3102
▁buy	-3103
▁hur	-3104
▁hour	-3105
▁drive	-3106
▁becomes	-3107
▁conference	-3108
▁republican	-3109
▁coup	-3110
▁week	-3111
▁diver	-3112
▁medic	-3113
▁plans	-3114
▁subject	-3115
▁material	-3116
▁agricultural	-3117
▁mortg	-3118
▁talks	-3119
▁addressing	-3120
▁assistance	-3121
▁profession	-3122
izes	-3123
going	-3124
▁prem	-3125
▁safe	-3126
▁advoc	-3127
▁going	-3128
▁wages	-3129
▁turned	-3130
▁imports	-3131
▁produced	-3132
▁announced	-3133
▁liquidity	-3134
▁efficiency	-3135
usion	-3136
▁stra	-3137
▁tell	-3138
▁compl	-3139
▁extent	-3140
▁conclud	-3141
▁context	-3142
▁elector	-3143
▁experts	-3144
▁argument	-3145
▁excessive	-3146
▁improving	-3147
ocks	-3148
▁tools	-3149
▁volat	-3150
▁capita	-3151
▁confront	-3152
aled	-3153
nces	-3154
rene	-3155
rist	-3156
▁bul	-3157
▁john	-3158
▁kong	-3159
▁serve	-3160
▁circum	-3161
▁promise	-3162
▁borrowing	-3163
ats	-3164
ley	-3165
▁ben	-3166
▁exc	-3167
▁hong	-3168
▁wars	-3169
▁chile	-3170
▁wants	-3171
▁allowing	-3172
▁reduction	-3173
▁historical	-3174
▁scientific	-3175
▁enterprises	-3176
▁substantial	-3177
▁transformation	-3178
back	-3179
ignt	-3180
▁dict	-3181
racies	-3182
ublish	-3183
▁adopt	-3184
▁stagn	-3185
▁takes	-3186
reprene	-3187
▁adopted	-3188
▁broader	-3189
▁populist	-3190
▁reflects	-3191
▁immediate	-3192
▁competitiveness	-3193
gn	-3194
▁flex	-3195
▁sides	-3196
▁payments	-3197
▁whatever	-3198
▁prospects	-3199
▁currencies	-3200
▁comprehensive	-3201
anu	-3202
▁adm	-3203
ignty	-3204
▁size	-3205
▁precisely	-3206
▁initiatives	-3207
nes	-3208
udi	-3209
illed	-3210
▁lose	-3211
▁calls	-3212
▁exceed	-3213
▁origin	-3214
▁lending	-3215
▁activity	-3216
▁specific	-3217
▁entreprene	-3218
2%	-3219
mo	-3220
orial	-3221
ulate	-3222
onents	-3223
▁depos	-3224
holders	-3225
▁comprom	-3226
▁elected	-3227
▁migrants	-3228
▁log	-3229
▁sett	-3230
elfare	-3231
illing	-3232
▁march	-3233
▁optim	-3234
▁range	-3235
actions	-3236
related	-3237
▁diplomatic	-3238
▁republicans	-3239
7%	-3240
know	-3241
▁lot	-3242
▁carry	-3243
▁final	-3244
▁causes	-3245
▁happen	-3246
▁police	-3247
▁diseases	-3248
▁economist	-3249
▁regulators	-3250
▁scientists	-3251
euro	-3252
▁squ	-3253
porary	-3254
▁worry	-3255
▁compar	-3256
▁publish	-3257
▁regulations	-3258
yed	-3259
▁built	-3260
▁improved	-3261
▁legitimacy	-3262
▁sovereignty	-3263
het	-3264
ipp	-3265
enth	-3266
▁wel	-3267
inton	-3268
levant	-3269
century	-3270
▁easing	-3271
▁online	-3272
▁stabil	-3273
▁changed	-3274
▁conduct	-3275
▁measure	-3276
bre	-3277
▁affairs	-3278
▁whereas	-3279
▁agreements	-3280
▁depression	-3281
rich	-3282
▁agg	-3283
riers	-3284
▁mach	-3285
▁your	-3286
▁earth	-3287
▁shown	-3288
▁driven	-3289
▁demands	-3290
▁anything	-3291
▁revenues	-3292
▁practices	-3293
▁subsidies	-3294
isms	-3295
oses	-3296
▁nove	-3297
▁task	-3298
▁easily	-3299
▁safety	-3300
▁clinton	-3301
▁november	-3302
▁southern	-3303
1%	-3304
4%	-3305
men	-3306
bank	-3307
grow	-3308
ique	-3309
look	-3310
mark	-3311
▁mit	-3312
▁enorm	-3313
▁fuels	-3314
▁langu	-3315
▁treas	-3316
▁execut	-3317
▁medical	-3318
▁raising	-3319
▁structure	-3320
▁electricity	-3321
▁gl	-3322
state	-3323
▁1990	-3324
▁factor	-3325
▁perman	-3326
▁achieved	-3327
▁northern	-3328
▁contribute	-3329
▁constitution	-3330
thod	-3331
▁try	-3332
▁dead	-3333
▁spent	-3334
▁crimin	-3335
▁unable	-3336
▁opinion	-3337
reciation	-3338
▁families	-3339
▁palestinian	-3340
5,	-3341
car	-3342
fect	-3343
▁ire	-3344
reced	-3345
ussels	-3346
▁chair	-3347
▁anyone	-3348
▁appears	-3349
▁changing	-3350
▁happened	-3351
▁slowdown	-3352
recedented	-3353
▁capitalism	-3354
▁intelligence	-3355
6%	-3356
anda	-3357
▁cop	-3358
iring	-3359
▁hear	-3360
▁june	-3361
▁light	-3362
▁spend	-3363
▁merely	-3364
▁bureauc	-3365
▁principles	-3366
▁geopolitical	-3367
▁unprecedented	-3368
vail	-3369
▁paid	-3370
▁wage	-3371
▁meant	-3372
▁deaths	-3373
▁depart	-3374
▁concent	-3375
▁neighbor	-3376
▁provides	-3377
▁estimated	-3378
▁universal	-3379
▁conservative	-3380
3%	-3381
mp	-3382
ains	-3383
cale	-3384
iable	-3385
▁acqu	-3386
▁stem	-3387
▁divers	-3388
▁inform	-3389
▁running	-3390
▁brussels	-3391
▁communic	-3392
▁macroeconomic	-3393
ev	-3394
asion	-3395
scale	-3396
▁acad	-3397
▁wall	-3398
▁eight	-3399
▁manip	-3400
▁separ	-3401
▁narrow	-3402
▁remark	-3403
▁connect	-3404
▁present	-3405
▁revenue	-3406
ructuring	-3407
▁considerable	-3408
nic	-3409
iles	-3410
▁oblig	-3411
▁advance	-3412
▁fighting	-3413
see	-3414
uck	-3415
pread	-3416
▁prol	-3417
idency	-3418
▁shock	-3419
▁acknow	-3420
▁merkel	-3421
▁received	-3422
uses	-3423
▁spur	-3424
▁vers	-3425
▁went	-3426
▁temper	-3427
▁ireland	-3428
▁december	-3429
▁committee	-3430
▁conflicts	-3431
▁associated	-3432
ax	-3433
pay	-3434
sis	-3435
▁100	-3436
comes	-3437
▁bail	-3438
ifying	-3439
lantic	-3440
▁colle	-3441
▁equal	-3442
▁worst	-3443
▁george	-3444
▁helping	-3445
▁quarter	-3446
▁refugee	-3447
▁designed	-3448
▁training	-3449
▁exception	-3450
▁sustained	-3451
eric	-3452
owned	-3453
▁rare	-3454
coming	-3455
▁returns	-3456
▁principle	-3457
▁thousands	-3458
arm	-3459
ded	-3460
▁je	-3461
rative	-3462
▁watch	-3463
▁wides	-3464
▁victim	-3465
▁barriers	-3466
▁possibility	-3467
fin	-3468
ola	-3469
▁ase	-3470
▁lies	-3471
istics	-3472
▁occup	-3473
itative	-3474
▁closer	-3475
▁alliance	-3476
▁resulting	-3477
▁widespread	-3478
▁restructuring	-3479
▁cra	-3480
hetor	-3481
▁capt	-3482
▁pack	-3483
▁rele	-3484
▁asean	-3485
▁stake	-3486
▁destro	-3487
▁giving	-3488
▁rhetor	-3489
▁viewed	-3490
▁consolid	-3491
▁operations	-3492
icro	-3493
rade	-3494
▁der	-3495
▁lab	-3496
▁pun	-3497
▁double	-3498
▁incomes	-3499
▁started	-3500
▁addition	-3501
▁circumst	-3502
▁mechanism	-3503
▁democracies	-3504
ha	-3505
cap	-3506
ops	-3507
iers	-3508
▁dav	-3509
▁army	-3510
acific	-3511
▁debts	-3512
▁faced	-3513
▁depends	-3514
▁ensuring	-3515
▁greatest	-3516
▁promises	-3517
▁coalition	-3518
▁supported	-3519
▁collective	-3520
▁strengthening	-3521
gs	-3522
ellect	-3523
▁adapt	-3524
▁bound	-3525
▁welfare	-3526
▁forecast	-3527
lar	-3528
▁wa	-3529
fall	-3530
inary	-3531
govern	-3532
▁insist	-3533
▁disrupt	-3534
▁highest	-3535
▁message	-3536
▁prevail	-3537
▁remained	-3538
▁presidency	-3539
hib	-3540
ote	-3541
cers	-3542
▁enjo	-3543
▁team	-3544
▁prove	-3545
▁tough	-3546
▁instru	-3547
▁amounts	-3548
▁threats	-3549
▁intellect	-3550
▁transport	-3551
inet	-3552
lied	-3553
▁asy	-3554
▁insp	-3555
▁ratio	-3556
▁space	-3557
▁israeli	-3558
▁managed	-3559
▁schools	-3560
▁entirely	-3561
▁launched	-3562
▁restrict	-3563
▁estimates	-3564
▁instability	-3565
iagn	-3566
▁tack	-3567
▁drugs	-3568
▁solar	-3569
▁moving	-3570
▁getting	-3571
▁controls	-3572
▁function	-3573
▁generate	-3574
▁outcomes	-3575
▁fundament	-3576
▁implemented	-3577
ox	-3578
icip	-3579
▁bol	-3580
ridge	-3581
▁spir	-3582
▁austral	-3583
▁struggle	-3584
▁nonetheless	-3585
▁circumstances	-3586
7.	-3587
sts	-3588
endit	-3589
▁ended	-3590
▁joint	-3591
▁belief	-3592
▁places	-3593
standing	-3594
ames	-3595
mine	-3596
ries	-3597
▁2010	-3598
▁arms	-3599
▁pace	-3600
▁saudi	-3601
▁choose	-3602
▁agencies	-3603
▁cambridge	-3604
▁everything	-3605
▁legislation	-3606
▁sto	-3607
▁frequ	-3608
▁learn	-3609
▁seven	-3610
▁trends	-3611
▁appropr	-3612
▁adjustment	-3613
▁everywhere	-3614
▁productive	-3615
ira	-3616
▁sun	-3617
▁defe	-3618
atures	-3619
▁mention	-3620
▁receive	-3621
▁combined	-3622
▁expendit	-3623
▁hundreds	-3624
▁scenario	-3625
▁considered	-3626
▁bill	-3627
▁round	-3628
▁views	-3629
▁easier	-3630
▁enormous	-3631
▁rhetoric	-3632
▁ministers	-3633
▁resistance	-3634
la	-3635
wan	-3636
ustain	-3637
▁greek	-3638
▁visit	-3639
▁tensions	-3640
bel	-3641
fuel	-3642
kept	-3643
▁mur	-3644
▁robust	-3645
▁smaller	-3646
▁highlight	-3647
▁experienced	-3648
8%	-3649
uine	-3650
▁50%	-3651
▁diss	-3652
▁viet	-3653
▁quite	-3654
▁resil	-3655
▁teach	-3656
▁christ	-3657
▁gender	-3658
▁suffer	-3659
▁lessons	-3660
▁percent	-3661
▁various	-3662
▁vietnam	-3663
▁weakness	-3664
zy	-3665
▁ep	-3666
▁aug	-3667
▁bit	-3668
apore	-3669
level	-3670
which	-3671
▁goes	-3672
▁wast	-3673
▁raised	-3674
▁twenty	-3675
▁absence	-3676
▁complic	-3677
▁repeated	-3678
yle	-3679
whel	-3680
▁pra	-3681
▁sex	-3682
▁isol	-3683
▁speak	-3684
▁revers	-3685
▁concept	-3686
▁cutting	-3687
▁equally	-3688
▁genuine	-3689
▁undermine	-3690
▁inevitable	-3691
▁territorial	-3692
ios	-3693
met	-3694
rics	-3695
▁hor	-3696
adequ	-3697
▁white	-3698
▁comput	-3699
▁resist	-3700
▁perspect	-3701
▁treasury	-3702
▁entrepreneurs	-3703
enn	-3704
▁2006	-3705
▁drop	-3706
▁whom	-3707
▁youth	-3708
▁bubble	-3709
▁deeply	-3710
▁owners	-3711
▁tariff	-3712
▁dynamic	-3713
▁disaster	-3714
▁resource	-3715
▁diplomacy	-3716
▁expanding	-3717
▁objectives	-3718
▁dut	-3719
▁tai	-3720
▁unw	-3721
gency	-3722
anuary	-3723
iately	-3724
▁dream	-3725
▁lines	-3726
▁medium	-3727
▁compens	-3728
▁driving	-3729
▁profits	-3730
▁collabor	-3731
▁involved	-3732
▁overwhel	-3733
▁generally	-3734
▁terrorist	-3735
▁imbalances	-3736
▁differences	-3737
▁50	-3738
▁eb	-3739
more	-3740
ogue	-3741
▁beg	-3742
ronic	-3743
▁adequ	-3744
▁asked	-3745
▁trial	-3746
▁hardly	-3747
▁intens	-3748
▁keynes	-3749
▁offers	-3750
▁worked	-3751
▁arrange	-3752
▁correct	-3753
▁january	-3754
▁persist	-3755
▁transfer	-3756
▁singapore	-3757
▁intellectual	-3758
.)	-3759
4,	-3760
▁il	-3761
▁ut	-3762
▁due	-3763
itude	-3764
▁base	-3765
europe	-3766
itting	-3767
▁alloc	-3768
▁hands	-3769
▁mount	-3770
▁mostly	-3771
▁enforce	-3772
▁himself	-3773
▁ongoing	-3774
▁declared	-3775
▁creditors	-3776
▁promoting	-3777
▁constitutional	-3778
ham	-3779
▁ey	-3780
irst	-3781
▁203	-3782
▁hiv	-3783
▁chann	-3784
▁fears	-3785
▁lesson	-3786
▁played	-3787
▁taiwan	-3788
▁inadequ	-3789
▁foundation	-3790
▁credibility	-3791
▁developments	-3792
uk	-3793
aid	-3794
▁vo	-3795
aling	-3796
▁obst	-3797
▁decided	-3798
▁implies	-3799
▁sharply	-3800
▁studies	-3801
▁bankrupt	-3802
▁priority	-3803
▁typically	-3804
▁194	-3805
▁stay	-3806
▁forms	-3807
▁periph	-3808
▁spring	-3809
▁sudden	-3810
▁patients	-3811
▁populations	-3812
hic	-3813
iot	-3814
ode	-3815
run	-3816
ares	-3817
▁dism	-3818
▁swed	-3819
▁vene	-3820
▁blame	-3821
▁canad	-3822
▁obser	-3823
▁stage	-3824
itation	-3825
▁poorest	-3826
▁includes	-3827
▁12	-3828
ints	-3829
lows	-3830
▁battle	-3831
▁cooper	-3832
▁fallen	-3833
▁prefer	-3834
▁options	-3835
▁greenhouse	-3836
▁implications	-3837
pin	-3838
▁2%	-3839
zuel	-3840
▁nav	-3841
▁sco	-3842
carbon	-3843
▁flood	-3844
▁colomb	-3845
▁proved	-3846
▁usually	-3847
▁accompan	-3848
▁leverage	-3849
3,	-3850
▁nig	-3851
▁gone	-3852
▁talk	-3853
▁perce	-3854
▁interv	-3855
▁coordin	-3856
ustainable	-3857
▁innovative	-3858
▁distribution	-3859
▁authoritarian	-3860
5.	-3861
elt	-3862
iny	-3863
-200	-3864
▁oct	-3865
▁sat	-3866
aught	-3867
▁bott	-3868
▁2008,	-3869
▁hours	-3870
▁critics	-3871
▁overcome	-3872
▁venezuel	-3873
▁investing	-3874
▁virtually	-3875
▁mechanisms	-3876
▁potentially	-3877
def	-3878
mon	-3879
xim	-3880
▁dc	-3881
ieth	-3882
ping	-3883
▁root	-3884
▁susp	-3885
itious	-3886
▁accum	-3887
▁tried	-3888
▁mainly	-3889
▁partner	-3890
▁language	-3891
▁learning	-3892
▁proposal	-3893
▁expensive	-3894
▁guarantee	-3895
▁technical	-3896
▁commitments	-3897
3.	-3898
ecd	-3899
book	-3900
fers	-3901
ober	-3902
▁oce	-3903
▁bang	-3904
▁dial	-3905
▁firm	-3906
▁gold	-3907
▁cheap	-3908
▁crime	-3909
▁exact	-3910
▁secur	-3911
▁stead	-3912
▁agency	-3913
▁defend	-3914
▁formal	-3915
▁sought	-3916
▁october	-3917
▁reinfor	-3918
▁permanent	-3919
▁renewable	-3920
▁establishment	-3921
erb	-3922
inks	-3923
eenth	-3924
itted	-3925
▁erdo	-3926
▁1990’	-3927
▁diagn	-3928
▁dimin	-3929
▁hopes	-3930
astroph	-3931
▁actors	-3932
▁stands	-3933
▁emerged	-3934
▁heavily	-3935
▁practice	-3936
▁achieving	-3937
▁fortunately	-3938
enh	-3939
iant	-3940
rust	-3941
▁dro	-3942
▁earn	-3943
▁join	-3944
▁room	-3945
▁told	-3946
▁upon	-3947
▁track	-3948
▁vehic	-3949
▁aggreg	-3950
▁assert	-3951
▁devast	-3952
▁review	-3953
▁offered	-3954
▁resolve	-3955
▁pursuing	-3956
▁demograph	-3957
▁volatility	-3958
▁participation	-3959
ria	-3960
ull	-3961
▁10	-3962
ched	-3963
▁gir	-3964
▁bear	-3965
▁rely	-3966
▁cycle	-3967
▁manag	-3968
▁ethnic	-3969
▁multip	-3970
▁failing	-3971
▁regimes	-3972
▁profound	-3973
▁objective	-3974
▁conventional	-3975
los	-3976
sych	-3977
uild	-3978
▁20%	-3979
▁hos	-3980
asing	-3981
rimin	-3982
▁grand	-3983
▁index	-3984
▁credible	-3985
▁immigrants	-3986
▁percentage	-3987
pet	-3988
▁hon	-3989
▁jew	-3990
▁mad	-3991
▁ties	-3992
▁deval	-3993
▁heavy	-3994
▁motiv	-3995
▁works	-3996
▁street	-3997
▁unique	-3998
▁putting	-3999
▁turning	-4000
▁electoral	-4001
ift	-4002
let	-4003
orb	-4004
son	-4005
first	-4006
▁pled	-4007
▁useful	-4008
▁divided	-4009
▁friends	-4010
▁mistake	-4011
▁planning	-4012
▁catastroph	-4013
ky	-4014
▁2009	-4015
▁2020	-4016
▁ital	-4017
▁sold	-4018
iction	-4019
▁cover	-4020
▁forum	-4021
▁mitig	-4022
▁psych	-4023
▁portug	-4024
▁appoint	-4025
▁involve	-4026
▁numbers	-4027
▁purpose	-4028
▁bringing	-4029
▁ordinary	-4030
▁di	-4031
fort	-4032
reach	-4033
▁excl	-4034
arency	-4035
rating	-4036
▁parad	-4037
▁spect	-4038
▁humans	-4039
▁korean	-4040
▁poland	-4041
▁prepared	-4042
▁relevant	-4043
▁starters	-4044
▁starting	-4045
▁declining	-4046
▁suffering	-4047
▁territory	-4048
▁integrated	-4049
▁transactions	-4050
▁transparency	-4051
▁unsustainable	-4052
▁sn	-4053
etic	-4054
▁pet	-4055
▁foot	-4056
▁ones	-4057
americ	-4058
▁chief	-4059
▁mobil	-4060
▁schem	-4061
▁shape	-4062
▁signs	-4063
▁desper	-4064
▁conclus	-4065
▁described	-4066
hol	-4067
leb	-4068
aria	-4069
iled	-4070
▁sad	-4071
▁grew	-4072
uations	-4073
▁assemb	-4074
▁degree	-4075
▁figure	-4076
▁infect	-4077
▁causing	-4078
▁aggregate	-4079
▁processes	-4080
▁remaining	-4081
▁tradition	-4082
▁continuing	-4083
me	-4084
ze	-4085
uous	-4086
▁hung	-4087
▁oecd	-4088
▁type	-4089
▁2015,	-4090
▁faith	-4091
▁weeks	-4092
ressive	-4093
▁explan	-4094
▁recomm	-4095
▁choices	-4096
▁replace	-4097
▁temporary	-4098
▁discussion	-4099
▁generations	-4100
▁sustainability	-4101
-19	-4102
han	-4103
rage	-4104
time	-4105
▁30%	-4106
▁tim	-4107
ested	-4108
iling	-4109
uries	-4110
▁camer	-4111
▁hamas	-4112
▁illeg	-4113
▁holding	-4114
▁pension	-4115
▁positions	-4116
▁producers	-4117
▁counterpart	-4118
▁encouraging	-4119
▁immediately	-4120
▁dramatically	-4121
iforn	-4122
▁1980	-4123
▁anim	-4124
▁body	-4125
▁july	-4126
herent	-4127
stream	-4128
▁micro	-4129
▁persu	-4130
▁elites	-4131
▁network	-4132
▁trouble	-4133
▁californ	-4134
▁combination	-4135
▁economically	-4136
itz	-4137
▁tob	-4138
acerb	-4139
▁fost	-4140
▁fulf	-4141
▁trip	-4142
termine	-4143
▁applic	-4144
▁conver	-4145
▁deploy	-4146
▁troops	-4147
▁exacerb	-4148
▁playing	-4149
▁dialogue	-4150
▁promised	-4151
▁determine	-4152
▁movements	-4153
▁introduced	-4154
▁underlying	-4155
▁appropriate	-4156
▁quantitative	-4157
conn	-4158
▁195	-4159
chang	-4160
▁calc	-4161
▁lend	-4162
▁rank	-4163
▁delay	-4164
▁knows	-4165
▁deeper	-4166
▁parent	-4167
▁summer	-4168
▁undert	-4169
▁happens	-4170
▁criminal	-4171
▁3.	-4172
▁mil	-4173
antly	-4174
▁feed	-4175
▁harv	-4176
idents	-4177
▁armed	-4178
▁paper	-4179
▁ruling	-4180
▁analysis	-4181
▁observers	-4182
▁inadequate	-4183
▁recognized	-4184
8,	-4185
ties	-4186
▁lag	-4187
▁bomb	-4188
▁artic	-4189
▁monit	-4190
ivalent	-4191
lements	-4192
ocratic	-4193
▁arabia	-4194
▁legisl	-4195
▁losing	-4196
▁superv	-4197
▁learned	-4198
▁addressed	-4199
▁australia	-4200
▁destruction	-4201
▁corporations	-4202
▁establishing	-4203
hi	-4204
lad	-4205
count	-4206
▁2010,	-4207
▁grown	-4208
ructive	-4209
▁fourth	-4210
▁annually	-4211
▁published	-4212
▁candidates	-4213
▁resolution	-4214
▁institution	-4215
ancy	-4216
▁40%	-4217
▁sho	-4218
▁cell	-4219
▁cyber	-4220
▁nomin	-4221
▁plants	-4222
▁stress	-4223
▁imagine	-4224
▁species	-4225
▁towards	-4226
ibilities	-4227
▁ambitious	-4228
▁twentieth	-4229
4.	-4230
bles	-4231
resp	-4232
with	-4233
▁kos	-4234
▁evol	-4235
▁black	-4236
▁exerc	-4237
▁imped	-4238
▁issued	-4239
▁method	-4240
▁search	-4241
▁reflected	-4242
▁california	-4243
▁solidarity	-4244
▁perspective	-4245
▁requirements	-4246
gas	-4247
oth	-4248
▁arch	-4249
▁fire	-4250
▁iron	-4251
▁serb	-4252
luding	-4253
▁react	-4254
▁suprem	-4255
▁discipl	-4256
▁reports	-4257
▁victims	-4258
▁billions	-4259
▁managing	-4260
▁aggressive	-4261
▁priorities	-4262
dgs	-4263
inf	-4264
▁yes	-4265
▁fert	-4266
▁solve	-4267
▁thanks	-4268
▁travel	-4269
▁healthy	-4270
▁perfect	-4271
▁philipp	-4272
▁occurred	-4273
▁inclusive	-4274
▁purchases	-4275
▁securities	-4276
▁journalists	-4277
▁accountability	-4278
ken	-4279
acco	-4280
llor	-4281
▁gaz	-4282
▁begun	-4283
▁looks	-4284
▁assume	-4285
▁declar	-4286
▁desire	-4287
▁detail	-4288
▁preced	-4289
▁syrian	-4290
▁indones	-4291
▁related	-4292
▁trigger	-4293
▁underpin	-4294
▁seriously	-4295
▁represents	-4296
ife	-4297
▁ang	-4298
▁ver	-4299
class	-4300
ffect	-4301
power	-4302
▁scar	-4303
▁shan	-4304
orient	-4305
▁mutual	-4306
▁reluct	-4307
▁senior	-4308
▁exactly	-4309
▁secular	-4310
▁tobacco	-4311
▁believed	-4312
▁investig	-4313
▁reaching	-4314
mos	-4315
oman	-4316
ground	-4317
▁fewer	-4318
▁ready	-4319
▁bottom	-4320
▁gained	-4321
▁impose	-4322
▁england	-4323
▁rational	-4324
▁surprise	-4325
▁contracts	-4326
▁experiment	-4327
▁previously	-4328
▁protecting	-4329
▁contributed	-4330
▁fal	-4331
▁fem	-4332
▁mix	-4333
▁gave	-4334
▁2014,	-4335
▁kosov	-4336
▁leban	-4337
▁modest	-4338
▁offset	-4339
▁profit	-4340
▁identity	-4341
▁protests	-4342
▁liberalization	-4343
100	-4344
ghai	-4345
▁abe	-4346
▁tre	-4347
▁tun	-4348
icing	-4349
▁flaw	-4350
▁2012,	-4351
▁2013,	-4352
▁added	-4353
▁ebola	-4354
▁revol	-4355
▁surely	-4356
▁shanghai	-4357
▁chancellor	-4358
▁regardless	-4359
▁nationalism	-4360
asc	-4361
isf	-4362
lum	-4363
ney	-4364
ula	-4365
igor	-4366
wing	-4367
▁jin	-4368
licit	-4369
phere	-4370
inking	-4371
▁enact	-4372
▁scand	-4373
▁confir	-4374
▁killed	-4375
▁paying	-4376
▁cameron	-4377
▁centers	-4378
▁restore	-4379
▁underst	-4380
▁dramatic	-4381
▁nationalist	-4382
▁palestinians	-4383
ster	-4384
ihood	-4385
works	-4386
▁aids	-4387
▁bold	-4388
▁peak	-4389
▁fixed	-4390
▁girls	-4391
▁asylum	-4392
▁signed	-4393
▁urgent	-4394
▁portugal	-4395
▁possibly	-4396
▁emergence	-4397
▁practical	-4398
▁equivalent	-4399
▁substantially	-4400
cons	-4401
what	-4402
▁80%	-4403
▁fif	-4404
▁inh	-4405
border	-4406
▁antib	-4407
▁blood	-4408
▁leads	-4409
▁maxim	-4410
▁truly	-4411
▁active	-4412
▁arrest	-4413
▁emerge	-4414
▁obstac	-4415
▁imposed	-4416
▁violent	-4417
▁welcome	-4418
▁disputes	-4419
▁equality	-4420
▁physical	-4421
▁evolution	-4422
▁proposals	-4423
▁accounting	-4424
▁supporting	-4425
▁implementation	-4426
ni	-4427
onom	-4428
▁60%	-4429
▁quo	-4430
▁shr	-4431
▁ange	-4432
▁remo	-4433
▁aging	-4434
▁decis	-4435
▁users	-4436
▁decide	-4437
▁figures	-4438
▁looking	-4439
▁mortgage	-4440
▁25	-4441
-201	-4442
adow	-4443
ibet	-4444
ogle	-4445
pric	-4446
▁hosp	-4447
▁vlad	-4448
▁compr	-4449
▁grant	-4450
▁kenya	-4451
▁smart	-4452
▁inevit	-4453
▁weight	-4454
exchange	-4455
▁affected	-4456
▁antibiot	-4457
▁colombia	-4458
▁candidate	-4459
▁concerned	-4460
▁indonesia	-4461
▁institute	-4462
▁transfers	-4463
▁approaches	-4464
▁maintaining	-4465
▁researchers	-4466
ino	-4467
▁11	-4468
▁ky	-4469
urch	-4470
▁2007	-4471
▁crow	-4472
▁exit	-4473
▁tact	-4474
▁celeb	-4475
▁elite	-4476
▁fueled	-4477
▁kosovo	-4478
▁mobile	-4479
▁sweden	-4480
▁notably	-4481
▁setting	-4482
▁boosting	-4483
▁globally	-4484
▁humanity	-4485
▁suffered	-4486
▁determined	-4487
▁recognition	-4488
▁representatives	-4489
gu	-4490
su	-4491
▁got	-4492
▁chem	-4493
▁nine	-4494
▁paul	-4495
mented	-4496
▁brics	-4497
▁liter	-4498
appoint	-4499
▁canada	-4500
▁compel	-4501
▁settle	-4502
▁engaged	-4503
▁historic	-4504
▁populism	-4505
▁gradually	-4506
▁attractive	-4507
▁preventing	-4508
▁accompanied	-4509
ns	-4510
imb	-4511
isc	-4512
▁od	-4513
cris	-4514
osis	-4515
ables	-4516
anish	-4517
▁turk	-4518
▁wake	-4519
crisis	-4520
▁catch	-4521
▁frust	-4522
▁tibet	-4523
rations	-4524
▁costly	-4525
▁content	-4526
▁identify	-4527
▁opponents	-4528
▁humanitarian	-4529
mun	-4530
imir	-4531
▁dow	-4532
ipped	-4533
▁race	-4534
▁symb	-4535
▁2011,	-4536
country	-4537
▁google	-4538
▁observ	-4539
▁showed	-4540
▁wanted	-4541
▁defined	-4542
▁expanded	-4543
▁managers	-4544
▁networks	-4545
▁reported	-4546
▁vladimir	-4547
▁eliminate	-4548
▁incentive	-4549
▁platforms	-4550
▁pressures	-4551
▁engagement	-4552
▁40	-4553
free	-4554
irds	-4555
pril	-4556
▁thr	-4557
ained	-4558
lades	-4559
▁brut	-4560
▁april	-4561
▁skept	-4562
▁august	-4563
european	-4564
national	-4565
▁chronic	-4566
▁jinping	-4567
▁keeping	-4568
▁opposite	-4569
▁supplies	-4570
▁borrowers	-4571
▁remarkable	-4572
▁structures	-4573
▁surprising	-4574
▁essentially	-4575
rog	-4576
▁lu	-4577
aily	-4578
ires	-4579
▁toler	-4580
raction	-4581
▁berlin	-4582
▁ending	-4583
▁shocks	-4584
▁italian	-4585
▁weather	-4586
▁hospital	-4587
▁banglades	-4588
▁emergency	-4589
ulf	-4590
yal	-4591
▁asp	-4592
▁cub	-4593
▁tow	-4594
icious	-4595
▁champ	-4596
▁daily	-4597
▁franc	-4598
▁tempt	-4599
pacific	-4600
▁wonder	-4601
▁benefic	-4602
▁exposed	-4603
▁express	-4604
▁subsequ	-4605
▁assembly	-4606
▁peaceful	-4607
▁employees	-4608
▁bankruptcy	-4609
▁compromise	-4610
▁supporters	-4611
▁educational	-4612
▁parliamentary	-4613
ocu	-4614
▁len	-4615
produ	-4616
▁crop	-4617
▁irre	-4618
icking	-4619
overed	-4620
▁nobel	-4621
▁reput	-4622
▁uncon	-4623
ference	-4624
▁incomp	-4625
▁prosec	-4626
▁bailout	-4627
▁creates	-4628
▁mandate	-4629
▁muslims	-4630
▁accepted	-4631
▁intended	-4632
▁shifting	-4633
ordination	-4634
▁venezuela	-4635
▁proportion	-4636
rs	-4637
iop	-4638
ager	-4639
ingu	-4640
pass	-4641
▁fil	-4642
▁slo	-4643
▁wis	-4644
ading	-4645
third	-4646
▁inde	-4647
▁phen	-4648
▁vice	-4649
arters	-4650
▁sales	-4651
▁crimes	-4652
▁defeat	-4653
▁prison	-4654
▁anticip	-4655
▁closely	-4656
▁embrace	-4657
▁iranian	-4658
▁opening	-4659
▁operate	-4660
▁tariffs	-4661
▁explicit	-4662
▁standing	-4663
▁perceived	-4664
▁stagnation	-4665
▁demographic	-4666
▁philippines	-4667
▁universities	-4668
8.	-4669
imp	-4670
aren	-4671
▁enem	-4672
iberal	-4673
iences	-4674
▁apply	-4675
▁crash	-4676
▁doesn	-4677
▁ideal	-4678
▁libert	-4679
▁rating	-4680
▁islands	-4681
iferation	-4682
▁criticism	-4683
▁negotiate	-4684
▁sentiment	-4685
▁imperative	-4686
▁threatened	-4687
▁withdrawal	-4688
▁restrictions	-4689
bert	-4690
▁anc	-4691
▁lay	-4692
uable	-4693
urate	-4694
▁gaza	-4695
▁rival	-4696
▁ethiop	-4697
▁legacy	-4698
ventions	-4699
▁artific	-4700
▁enhance	-4701
▁illegal	-4702
▁lebanon	-4703
▁pushing	-4704
▁included	-4705
▁survival	-4706
▁centuries	-4707
▁periphery	-4708
▁promising	-4709
▁legitimate	-4710
▁innovations	-4711
idel	-4712
▁dub	-4713
igned	-4714
▁exam	-4715
▁rose	-4716
▁seas	-4717
driven	-4718
inding	-4719
▁atmos	-4720
▁disag	-4721
▁moved	-4722
▁scope	-4723
▁ignore	-4724
▁sheets	-4725
oriented	-4726
security	-4727
▁ethical	-4728
▁finding	-4729
▁targeted	-4730
▁coordination	-4731
ari	-4732
ague	-4733
appe	-4734
debt	-4735
inct	-4736
being	-4737
oking	-4738
▁says	-4739
▁shap	-4740
▁tour	-4741
▁wild	-4742
▁wish	-4743
▁deals	-4744
▁plant	-4745
▁plent	-4746
▁closed	-4747
▁warned	-4748
▁budgets	-4749
▁distort	-4750
intensive	-4751
▁advances	-4752
▁phenomen	-4753
▁vaccines	-4754
▁concluded	-4755
▁devastating	-4756
▁necessarily	-4757
▁undermining	-4758
▁willingness	-4759
▁contributions	-4760
che	-4761
eng	-4762
amed	-4763
▁born	-4764
▁norm	-4765
ultane	-4766
▁downt	-4767
▁reass	-4768
▁tests	-4769
▁prohib	-4770
▁pushed	-4771
▁initial	-4772
▁recover	-4773
▁sharing	-4774
▁survive	-4775
▁primarily	-4776
▁inevitably	-4777
iang	-4778
▁hom	-4779
▁bern	-4780
▁epid	-4781
▁magn	-4782
▁pact	-4783
▁sort	-4784
▁zone	-4785
▁advis	-4786
▁guide	-4787
▁libya	-4788
▁height	-4789
▁macron	-4790
▁taxpay	-4791
▁weaker	-4792
▁brother	-4793
▁bubbles	-4794
▁deterior	-4795
▁examples	-4796
▁facebook	-4797
▁failures	-4798
▁momentum	-4799
▁rejected	-4800
▁extremely	-4801
▁simultane	-4802
▁instruments	-4803
hr	-4804
how	-4805
oud	-4806
utr	-4807
lete	-4808
onent	-4809
▁mill	-4810
▁alike	-4811
▁apart	-4812
▁coast	-4813
▁rebal	-4814
▁table	-4815
isingly	-4816
▁contro	-4817
▁placed	-4818
▁autonom	-4819
▁players	-4820
▁marginal	-4821
▁systemic	-4822
▁understood	-4823
▁qe	-4824
iber	-4825
pted	-4826
▁cry	-4827
▁ded	-4828
▁esc	-4829
▁sac	-4830
▁ment	-4831
▁match	-4832
▁risky	-4833
control	-4834
▁allows	-4835
▁punish	-4836
▁slight	-4837
▁corrupt	-4838
▁minority	-4839
▁presence	-4840
▁bureaucrat	-4841
▁demonstrated	-4842
bit	-4843
uan	-4844
uit	-4845
▁hu	-4846
▁ji	-4847
east	-4848
eter	-4849
▁mun	-4850
arely	-4851
break	-4852
china	-4853
order	-4854
▁resc	-4855
▁phase	-4856
▁attrib	-4857
▁survey	-4858
ophistic	-4859
▁calling	-4860
▁capable	-4861
▁supreme	-4862
ineteenth	-4863
▁regarded	-4864
▁vehicles	-4865
▁executive	-4866
▁operating	-4867
▁ownership	-4868
▁populists	-4869
▁facilitate	-4870
▁terrorists	-4871
▁constraints	-4872
▁improvement	-4873
▁threatening	-4874
▁16	-4875
▁17	-4876
▁3%	-4877
▁nic	-4878
lines	-4879
usive	-4880
▁burn	-4881
▁krem	-4882
▁tort	-4883
clical	-4884
minent	-4885
▁absol	-4886
▁interp	-4887
▁linked	-4888
▁reward	-4889
▁kremlin	-4890
▁malaria	-4891
▁nigeria	-4892
▁coverage	-4893
▁deposits	-4894
▁offering	-4895
▁bangladesh	-4896
▁statistics	-4897
▁depreciation	-4898
iar	-4899
oke	-4900
▁13	-4901
▁pi	-4902
agen	-4903
▁web	-4904
inded	-4905
▁frank	-4906
▁newly	-4907
▁ocean	-4908
▁older	-4909
▁joined	-4910
▁relief	-4911
▁applied	-4912
▁warning	-4913
▁adequate	-4914
▁chairman	-4915
▁downturn	-4916
▁downward	-4917
▁customers	-4918
▁implementing	-4919
gm	-4920
ps	-4921
aba	-4922
era	-4923
ding	-4924
oubt	-4925
rote	-4926
ware	-4927
▁via	-4928
point	-4929
▁wave	-4930
▁absorb	-4931
▁select	-4932
atlantic	-4933
function	-4934
▁fragile	-4935
▁wealthy	-4936
▁strongly	-4937
▁threaten	-4938
▁acknowled	-4939
▁condition	-4940
▁sophistic	-4941
▁disappoint	-4942
▁declaration	-4943
▁explanation	-4944
▁obligations	-4945
9%	-4946
ips	-4947
osy	-4948
ume	-4949
ikes	-4950
olar	-4951
▁anx	-4952
▁die	-4953
▁pie	-4954
▁wal	-4955
adays	-4956
osoph	-4957
trade	-4958
▁2012	-4959
aining	-4960
rights	-4961
ulating	-4962
▁buying	-4963
▁except	-4964
▁series	-4965
▁stance	-4966
▁tackle	-4967
▁adverse	-4968
▁claimed	-4969
▁collaps	-4970
▁comfort	-4971
▁nowadays	-4972
▁capabilities	-4973
▁1%	-4974
▁5%	-4975
▁ox	-4976
math	-4977
size	-4978
▁90%	-4979
▁cha	-4980
▁eru	-4981
assad	-4982
▁clin	-4983
▁reck	-4984
▁vill	-4985
▁immun	-4986
▁monop	-4987
▁twice	-4988
▁votes	-4989
▁enabled	-4990
▁nominal	-4991
▁religion	-4992
▁dictators	-4993
▁displaced	-4994
▁obviously	-4995
▁controvers	-4996
▁settlement	-4997
▁transparent	-4998
▁counterparts	-4999
cur	-5000
ica	-5001
iox	-5002
▁pb	-5003
erous	-5004
▁bloc	-5005
▁fate	-5006
itness	-5007
▁multi	-5008
▁polls	-5009
▁speed	-5010
osystem	-5011
▁appeal	-5012
▁donors	-5013
▁raises	-5014
▁served	-5015
▁viable	-5016
reaching	-5017
▁broadly	-5018
▁destabil	-5019
▁philosoph	-5020
▁accelerate	-5021
▁completely	-5022
▁extraordin	-5023
▁reasonable	-5024
▁manipulation	-5025
▁congressional	-5026
▁interventions	-5027
ahar	-5028
irth	-5029
▁hol	-5030
ommod	-5031
orter	-5032
using	-5033
▁ball	-5034
▁kept	-5035
▁perm	-5036
▁scre	-5037
pected	-5038
▁escal	-5039
▁penal	-5040
▁recip	-5041
▁telev	-5042
▁woman	-5043
ulative	-5044
▁courts	-5045
▁decent	-5046
▁entail	-5047
▁labour	-5048
▁proced	-5049
▁satisf	-5050
▁senate	-5051
▁slower	-5052
ifically	-5053
▁dispute	-5054
▁undoubt	-5055
▁accommod	-5056
▁enabling	-5057
▁released	-5058
▁revealed	-5059
▁dependent	-5060
▁dominated	-5061
▁repeatedly	-5062
▁progressive	-5063
▁participants	-5064
▁professional	-5065
bru	-5066
dem	-5067
anch	-5068
lock	-5069
anmar	-5070
irect	-5071
▁2011	-5072
▁aims	-5073
▁wors	-5074
ivered	-5075
▁norms	-5076
▁unity	-5077
▁wrote	-5078
▁condem	-5079
▁harder	-5080
▁retail	-5081
▁retire	-5082
▁carried	-5083
▁command	-5084
▁opposed	-5085
▁painful	-5086
▁spanish	-5087
▁aftermath	-5088
▁ecosystem	-5089
▁advantages	-5090
▁affordable	-5091
▁department	-5092
▁mainstream	-5093
▁repression	-5094
▁flexibility	-5095
▁consolidation	-5096
▁14	-5097
rete	-5098
▁70%	-5099
▁obt	-5100
▁pla	-5101
▁docu	-5102
urally	-5103
▁aside	-5104
▁defin	-5105
enhagen	-5106
through	-5107
▁acting	-5108
▁chains	-5109
▁resort	-5110
▁package	-5111
▁discrimin	-5112
▁consistent	-5113
▁copenhagen	-5114
▁undoubtedly	-5115
▁alternatives	-5116
▁contribution	-5117
▁strengthened	-5118
na	-5119
no	-5120
bur	-5121
▁60	-5122
▁hun	-5123
▁ple	-5124
known	-5125
▁emot	-5126
▁hege	-5127
▁rout	-5128
commun	-5129
▁david	-5130
▁tunis	-5131
▁aspect	-5132
▁escape	-5133
▁extend	-5134
▁leaves	-5135
▁rarely	-5136
▁yields	-5137
veraging	-5138
▁pursued	-5139
▁attempts	-5140
▁disagree	-5141
▁elements	-5142
▁multiple	-5143
▁returned	-5144
▁delivered	-5145
▁governing	-5146
▁southeast	-5147
▁encouraged	-5148
▁furthermore	-5149
▁ideological	-5150
▁os	-5151
▁aud	-5152
▁naz	-5153
▁gulf	-5154
bruary	-5155
estate	-5156
▁holds	-5157
▁surge	-5158
▁waste	-5159
▁bigger	-5160
▁contem	-5161
▁intent	-5162
▁latter	-5163
▁diverse	-5164
▁harvard	-5165
▁parents	-5166
▁slowing	-5167
▁balanced	-5168
▁concrete	-5169
▁educated	-5170
▁apparently	-5171
▁presidents	-5172
▁recognizing	-5173
▁arrangements	-5174
▁successfully	-5175
9.	-5176
sp	-5177
att	-5178
gic	-5179
ked	-5180
body	-5181
mans	-5182
▁bid	-5183
▁dar	-5184
▁sole	-5185
health	-5186
▁logic	-5187
▁night	-5188
▁sudan	-5189
develop	-5190
▁caught	-5191
▁charge	-5192
▁church	-5193
▁shifts	-5194
▁channel	-5195
▁minimum	-5196
▁myanmar	-5197
▁governor	-5198
▁moderate	-5199
▁properly	-5200
▁atmosphere	-5201
▁nineteenth	-5202
▁television	-5203
▁antibiotics	-5204
egu	-5205
oly	-5206
ozy	-5207
urb	-5208
▁tb	-5209
▁gam	-5210
▁hab	-5211
rence	-5212
style	-5213
▁loan	-5214
▁pret	-5215
▁seed	-5216
▁trib	-5217
▁vent	-5218
thirds	-5219
▁prede	-5220
▁shale	-5221
▁actual	-5222
▁forest	-5223
▁disappe	-5224
▁killing	-5225
▁proceed	-5226
▁profess	-5227
▁prolong	-5228
▁reverse	-5229
▁variety	-5230
including	-5231
▁academic	-5232
▁announce	-5233
▁emphasis	-5234
▁february	-5235
▁outbreak	-5236
▁patterns	-5237
▁generated	-5238
▁narrative	-5239
▁generating	-5240
▁negotiating	-5241
▁improvements	-5242
▁effectiveness	-5243
gdp	-5244
ror	-5245
moil	-5246
▁lie	-5247
▁vac	-5248
▁cars	-5249
▁fish	-5250
▁tele	-5251
arkozy	-5252
growth	-5253
▁posed	-5254
▁steel	-5255
▁voted	-5256
uilding	-5257
▁academ	-5258
▁archit	-5259
▁compete	-5260
▁expense	-5261
▁mission	-5262
▁realize	-5263
▁turmoil	-5264
▁disorder	-5265
▁somewhat	-5266
▁valuable	-5267
▁predecess	-5268
▁producing	-5269
▁provision	-5270
▁responses	-5271
▁assessment	-5272
▁prosperous	-5273
▁resilience	-5274
▁struggling	-5275
▁challenging	-5276
▁devaluation	-5277
eet	-5278
ius	-5279
ray	-5280
west	-5281
▁hot	-5282
oming	-5283
price	-5284
▁links	-5285
▁pharm	-5286
▁staff	-5287
▁estate	-5288
▁perpet	-5289
▁strike	-5290
▁waters	-5291
ffective	-5292
▁pointed	-5293
▁ethiopia	-5294
▁meetings	-5295
▁severely	-5296
▁architect	-5297
▁conducted	-5298
▁diversity	-5299
▁workforce	-5300
▁dependence	-5301
▁purchasing	-5302
▁tightening	-5303
▁association	-5304
▁temperatures	-5305
cker	-5306
▁hyd	-5307
elect	-5308
ollah	-5309
rates	-5310
▁dark	-5311
▁prud	-5312
ailand	-5313
▁acute	-5314
▁angela	-5315
▁barely	-5316
▁combat	-5317
▁nether	-5318
▁transl	-5319
▁wisdom	-5320
▁comment	-5321
▁deposit	-5322
▁sarkozy	-5323
▁absolute	-5324
▁computer	-5325
▁flexible	-5326
▁suddenly	-5327
▁initially	-5328
▁conclusion	-5329
▁specifically	-5330
rew	-5331
▁ts	-5332
serv	-5333
inced	-5334
party	-5335
sahar	-5336
▁qual	-5337
▁stal	-5338
▁wait	-5339
▁2016,	-5340
▁berke	-5341
saharan	-5342
▁friend	-5343
▁poorer	-5344
▁prepar	-5345
▁safegu	-5346
▁shares	-5347
▁slowly	-5348
▁spirit	-5349
▁volunt	-5350
▁consult	-5351
▁turkish	-5352
▁witness	-5353
▁annivers	-5354
▁informal	-5355
▁measured	-5356
▁mobility	-5357
▁thailand	-5358
▁isolation	-5359
▁shortfall	-5360
▁stimulate	-5361
▁guarantees	-5362
▁netherlands	-5363
▁relationships	-5364
fe	-5365
cor	-5366
cri	-5367
har	-5368
pan	-5369
soc	-5370
▁6.	-5371
aded	-5372
▁25%	-5373
▁swe	-5374
▁cast	-5375
▁doub	-5376
▁drag	-5377
▁runs	-5378
00,000	-5379
asters	-5380
depend	-5381
iaries	-5382
▁1980’	-5383
▁equip	-5384
▁false	-5385
▁gives	-5386
▁helps	-5387
▁refer	-5388
▁risen	-5389
▁saying	-5390
▁weaken	-5391
▁inflows	-5392
▁someone	-5393
▁stopped	-5394
▁berkeley	-5395
▁declined	-5396
▁limiting	-5397
▁publicly	-5398
▁expertise	-5399
▁suggested	-5400
▁accomplish	-5401
▁discipline	-5402
▁expenditures	-5403
▁policymaking	-5404
mad	-5405
▁ic	-5406
itter	-5407
under	-5408
▁rail	-5409
adjust	-5410
▁burma	-5411
▁colon	-5412
▁newsp	-5413
▁noted	-5414
▁wider	-5415
▁apprec	-5416
▁broken	-5417
▁female	-5418
▁flight	-5419
▁shadow	-5420
▁dealing	-5421
▁empower	-5422
▁fueling	-5423
▁gradual	-5424
▁ignored	-5425
▁vaccine	-5426
inational	-5427
inflation	-5428
▁inclusion	-5429
▁seemingly	-5430
▁taxpayers	-5431
▁executives	-5432
▁revolutionary	-5433
new	-5434
resh	-5435
▁dim	-5436
▁kim	-5437
agger	-5438
gered	-5439
itten	-5440
oning	-5441
▁trap	-5442
itudes	-5443
▁enlar	-5444
▁heard	-5445
▁minds	-5446
▁polar	-5447
▁advice	-5448
▁father	-5449
▁presum	-5450
▁serbia	-5451
▁unders	-5452
▁deliber	-5453
▁outlook	-5454
▁renewed	-5455
▁treated	-5456
▁worried	-5457
▁chemical	-5458
▁islamist	-5459
▁attempting	-5460
▁frequently	-5461
▁indicators	-5462
▁considerably	-5463
▁fundamentals	-5464
▁sophisticated	-5465
10	-5466
bul	-5467
ple	-5468
arak	-5469
vest	-5470
▁rig	-5471
▁saw	-5472
inian	-5473
▁blow	-5474
▁grid	-5475
▁pill	-5476
▁star	-5477
ashion	-5478
iments	-5479
lessly	-5480
▁2001,	-5481
▁haven	-5482
▁heads	-5483
▁argues	-5484
▁gather	-5485
▁plenty	-5486
american	-5487
▁stories	-5488
▁creative	-5489
▁convinced	-5490
▁expressed	-5491
▁recommend	-5492
▁statement	-5493
▁fundamentally	-5494
tt	-5495
gia	-5496
ias	-5497
rum	-5498
inds	-5499
oted	-5500
prof	-5501
▁irr	-5502
ordan	-5503
▁curb	-5504
▁insu	-5505
▁mich	-5506
▁park	-5507
▁soes	-5508
▁abuse	-5509
▁define	-5510
▁empire	-5511
▁charges	-5512
▁insight	-5513
▁millenn	-5514
▁version	-5515
▁damaging	-5516
▁exercise	-5517
▁outright	-5518
▁platform	-5519
▁carefully	-5520
▁responded	-5521
▁triggered	-5522
▁unwilling	-5523
▁urbanization	-5524
▁communication	-5525
?”	-5526
cles	-5527
ilem	-5528
ocol	-5529
▁202	-5530
▁los	-5531
▁syn	-5532
▁balk	-5533
▁uses	-5534
ounded	-5535
ptions	-5536
▁2009,	-5537
mission	-5538
product	-5539
▁murder	-5540
▁overse	-5541
▁robert	-5542
▁talent	-5543
▁contrad	-5544
▁evident	-5545
▁payment	-5546
▁routine	-5547
▁director	-5548
▁imperial	-5549
▁medicine	-5550
▁reaction	-5551
▁resulted	-5552
▁straight	-5553
▁ambitions	-5554
▁arguments	-5555
▁mortgages	-5556
▁weakening	-5557
▁artificial	-5558
governmental	-5559
▁engineering	-5560
▁appreciation	-5561
▁shareholders	-5562
▁multinational	-5563
▁representative	-5564
▁4.	-5565
▁id	-5566
▁ug	-5567
adic	-5568
itch	-5569
ques	-5570
rane	-5571
▁doz	-5572
agues	-5573
integ	-5574
odies	-5575
▁brid	-5576
▁cypr	-5577
▁text	-5578
▁2000,	-5579
▁blair	-5580
▁facts	-5581
▁traff	-5582
▁usual	-5583
▁adding	-5584
▁island	-5585
▁opened	-5586
▁strict	-5587
▁voting	-5588
▁paradox	-5589
▁demanding	-5590
▁happening	-5591
▁maintained	-5592
▁participate	-5593
▁breakthrough	-5594
▁experiencing	-5595
ami	-5596
aut	-5597
ini	-5598
ugg	-5599
▁kh	-5600
ford	-5601
iban	-5602
inder	-5603
think	-5604
▁died	-5605
▁eyes	-5606
▁fill	-5607
▁pool	-5608
▁homes	-5609
▁moves	-5610
▁roman	-5611
▁jordan	-5612
▁assumed	-5613
▁college	-5614
▁dismiss	-5615
▁showing	-5616
▁taliban	-5617
▁analysts	-5618
▁benefited	-5619
▁concerning	-5620
▁acknowledge	-5621
▁consequence	-5622
▁collaboration	-5623
▁transatlantic	-5624
▁simultaneously	-5625
fs	-5626
zz	-5627
bted	-5628
cher	-5629
face	-5630
grad	-5631
lash	-5632
usal	-5633
▁gun	-5634
▁lob	-5635
▁gets	-5636
▁hill	-5637
▁puts	-5638
ranean	-5639
▁2015.	-5640
▁guard	-5641
▁kinds	-5642
▁panel	-5643
▁ruled	-5644
▁voice	-5645
areness	-5646
▁scheme	-5647
▁symbol	-5648
interest	-5649
▁destroy	-5650
▁privile	-5651
▁selling	-5652
▁decisive	-5653
▁distingu	-5654
▁dominant	-5655
▁geograph	-5656
▁invested	-5657
▁connected	-5658
▁predicted	-5659
▁anniversary	-5660
▁coordinated	-5661
▁extraordinary	-5662
▁transportation	-5663
ta	-5664
rif	-5665
aves	-5666
oked	-5667
osen	-5668
▁coh	-5669
▁cul	-5670
▁xia	-5671
aving	-5672
nings	-5673
▁alle	-5674
▁shut	-5675
istrib	-5676
▁cells	-5677
▁enjoy	-5678
▁simpl	-5679
▁types	-5680
veraged	-5681
▁brings	-5682
▁deprec	-5683
▁divide	-5684
▁manner	-5685
▁proven	-5686
▁rulers	-5687
▁atlantic	-5688
▁focusing	-5689
▁pressing	-5690
▁weakened	-5691
▁awareness	-5692
▁equipment	-5693
▁controlled	-5694
▁minorities	-5695
▁enforcement	-5696
▁foundations	-5697
▁problematic	-5698
▁rebalancing	-5699
▁compensation	-5700
sk	-5701
▁na	-5702
alle	-5703
onia	-5704
rown	-5705
▁mub	-5706
▁cuba	-5707
▁pboc	-5708
anging	-5709
ioxide	-5710
▁assad	-5711
▁birth	-5712
▁crack	-5713
▁dilem	-5714
▁eager	-5715
▁euros	-5716
▁poses	-5717
▁thres	-5718
perform	-5719
▁advert	-5720
▁madrid	-5721
▁dangers	-5722
▁forcing	-5723
ventional	-5724
▁adopting	-5725
▁discoura	-5726
▁egyptian	-5727
▁protocol	-5728
▁reliable	-5729
▁supports	-5730
▁urgently	-5731
▁favorable	-5732
▁requiring	-5733
▁automation	-5734
▁foreigners	-5735
▁meaningful	-5736
▁phenomenon	-5737
▁complicated	-5738
▁considering	-5739
▁expenditure	-5740
▁consistently	-5741
40	-5742
iro	-5743
isp	-5744
rap	-5745
edge	-5746
head	-5747
odes	-5748
rees	-5749
rity	-5750
▁15%	-5751
place	-5752
▁2017	-5753
▁felt	-5754
▁nutr	-5755
▁pure	-5756
▁chain	-5757
▁fresh	-5758
▁exclud	-5759
▁fulfill	-5760
▁hungary	-5761
▁mubarak	-5762
▁civilian	-5763
▁lowering	-5764
▁reconcil	-5765
▁reliance	-5766
▁dominance	-5767
▁exporters	-5768
▁organized	-5769
▁projected	-5770
▁threshold	-5771
▁impressive	-5772
▁reductions	-5773
▁reputation	-5774
▁subsequent	-5775
▁contributing	-5776
▁insufficient	-5777
▁internationally	-5778
tr	-5779
...	-5780
dam	-5781
eda	-5782
▁ak	-5783
anke	-5784
cost	-5785
oned	-5786
▁1970	-5787
▁holl	-5788
▁pict	-5789
▁send	-5790
▁unex	-5791
▁unit	-5792
iating	-5793
▁aware	-5794
▁entit	-5795
▁imply	-5796
▁pragm	-5797
growing	-5798
▁backed	-5799
▁stocks	-5800
currency	-5801
idelines	-5802
▁capture	-5803
▁closing	-5804
▁missile	-5805
▁nowhere	-5806
▁removed	-5807
▁financed	-5808
▁slightly	-5809
▁ourselves	-5810
▁prevented	-5811
▁reluctant	-5812
▁threatens	-5813
▁assumption	-5814
▁discussions	-5815
▁partnerships	-5816
▁characterized	-5817
gor	-5818
usse	-5819
▁gar	-5820
▁mag	-5821
enses	-5822
essim	-5823
opard	-5824
▁barg	-5825
▁epis	-5826
▁eval	-5827
▁summ	-5828
▁arbit	-5829
▁badly	-5830
▁delhi	-5831
▁insol	-5832
▁lacks	-5833
▁illust	-5834
▁inside	-5835
▁malays	-5836
▁prince	-5837
▁remote	-5838
adjusted	-5839
▁courage	-5840
▁doctors	-5841
▁drawing	-5842
▁english	-5843
▁justify	-5844
▁machine	-5845
▁mediter	-5846
▁missing	-5847
▁patient	-5848
connected	-5849
▁backlash	-5850
▁ministry	-5851
▁remember	-5852
▁upcoming	-5853
▁palestine	-5854
▁realistic	-5855
▁surpluses	-5856
▁identified	-5857
▁undermined	-5858
▁neighborhood	-5859
▁overwhelming	-5860
▁mediterranean	-5861
ket	-5862
oms	-5863
ura	-5864
urt	-5865
▁cz	-5866
▁pu	-5867
isan	-5868
▁ast	-5869
▁hyp	-5870
▁mel	-5871
eping	-5872
▁deng	-5873
▁sant	-5874
▁anger	-5875
▁harsh	-5876
▁image	-5877
▁river	-5878
▁brutal	-5879
▁restra	-5880
▁debates	-5881
▁foresee	-5882
▁traject	-5883
▁accurate	-5884
▁africans	-5885
▁extended	-5886
▁separate	-5887
▁underest	-5888
▁christian	-5889
▁confident	-5890
▁regarding	-5891
▁facilities	-5892
▁demonstrate	-5893
▁inefficient	-5894
adv	-5895
mor	-5896
oes	-5897
oto	-5898
sey	-5899
urd	-5900
aeda	-5901
otic	-5902
ruit	-5903
▁205	-5904
▁bon	-5905
iking	-5906
▁hurt	-5907
▁pick	-5908
▁sand	-5909
utical	-5910
▁aspir	-5911
▁crypt	-5912
▁deleg	-5913
▁gates	-5914
▁prize	-5915
▁seeks	-5916
▁write	-5917
agement	-5918
illance	-5919
▁eradic	-5920
▁hunger	-5921
▁pessim	-5922
▁accused	-5923
▁decreas	-5924
▁denmark	-5925
▁gaining	-5926
▁jeopard	-5927
▁methods	-5928
▁refused	-5929
▁torture	-5930
▁bernanke	-5931
▁champion	-5932
▁imposing	-5933
▁preserve	-5934
▁abandoned	-5935
▁materials	-5936
▁liabilities	-5937
ctr	-5938
had	-5939
tax	-5940
uro	-5941
beit	-5942
port	-5943
▁sym	-5944
enced	-5945
world	-5946
▁intr	-5947
▁outl	-5948
▁pand	-5949
▁stor	-5950
iances	-5951
iously	-5952
ipping	-5953
▁2008.	-5954
▁expos	-5955
▁falls	-5956
▁humil	-5957
▁postp	-5958
▁repay	-5959
▁schol	-5960
osition	-5961
▁couple	-5962
▁hurric	-5963
▁oppose	-5964
▁passed	-5965
▁propag	-5966
▁steady	-5967
▁stream	-5968
▁alleged	-5969
▁exchang	-5970
▁planned	-5971
▁substit	-5972
▁winning	-5973
aceutical	-5974
▁numerous	-5975
▁treaties	-5976
▁beneficial	-5977
▁statements	-5978
▁convergence	-5979
▁manufacture	-5980
▁surprisingly	-5981
▁modernization	-5982
▁vulnerability	-5983
olf	-5984
▁1,	-5985
tech	-5986
▁fun	-5987
claim	-5988
▁1930	-5989
▁seat	-5990
▁yell	-5991
▁2007,	-5992
▁check	-5993
▁fails	-5994
▁gross	-5995
▁laure	-5996
▁toxic	-5997
▁turns	-5998
▁driver	-5999
▁norway	-6000
▁openly	-6001
▁slowed	-6002
▁traged	-6003
▁dropped	-6004
▁holland	-6005
▁pricing	-6006
▁spectac	-6007
▁appeared	-6008
▁machines	-6009
▁mitigate	-6010
▁purchase	-6011
▁replaced	-6012
▁activists	-6013
▁attitudes	-6014
▁component	-6015
▁background	-6016
▁neighboring	-6017
▁historically	-6018
▁surveillance	-6019
agan	-6020
fare	-6021
supp	-6022
▁jur	-6023
ashed	-6024
asive	-6025
▁didn	-6026
▁enth	-6027
▁forg	-6028
▁plun	-6029
racted	-6030
umping	-6031
▁arise	-6032
▁fifth	-6033
▁forth	-6034
▁incor	-6035
▁novel	-6036
▁signal	-6037
▁square	-6038
▁uphold	-6039
▁greatly	-6040
▁lenders	-6041
▁liberty	-6042
▁streets	-6043
▁tunisia	-6044
▁dynamics	-6045
▁mounting	-6046
▁province	-6047
▁alongside	-6048
▁deepening	-6049
▁prolonged	-6050
▁resolving	-6051
▁stabilize	-6052
▁targeting	-6053
▁wellbeing	-6054
▁colleagues	-6055
▁negotiated	-6056
▁perception	-6057
▁bureaucracy	-6058
▁nevertheless	-6059
▁discrimination	-6060
▁pharmaceutical	-6061
▁unconventional	-6062
▁understandable	-6063
6.	-6064
cp	-6065
emb	-6066
kes	-6067
ste	-6068
▁5.	-6069
dict	-6070
iced	-6071
▁fat	-6072
acing	-6073
erson	-6074
sight	-6075
utral	-6076
▁wise	-6077
holder	-6078
ocrats	-6079
▁alger	-6080
▁sunni	-6081
▁virus	-6082
▁attend	-6083
▁basket	-6084
▁enthus	-6085
▁provid	-6086
▁sexual	-6087
ominated	-6088
▁careful	-6089
▁chances	-6090
▁concert	-6091
▁feature	-6092
▁genetic	-6093
▁neglect	-6094
▁peoples	-6095
establish	-6096
▁avoiding	-6097
▁finances	-6098
▁mobilize	-6099
▁underway	-6100
▁obstacles	-6101
▁comparable	-6102
▁brotherhood	-6103
▁confronting	-6104
▁applications	-6105
▁dictatorship	-6106
▁protectionism	-6107
30	-6108
lu	-6109
fol	-6110
aunt	-6111
onds	-6112
▁500	-6113
▁avo	-6114
▁dys	-6115
▁hub	-6116
▁lux	-6117
▁mao	-6118
▁une	-6119
apers	-6120
throp	-6121
▁amid	-6122
▁code	-6123
▁dele	-6124
▁gaps	-6125
▁judg	-6126
▁wood	-6127
ashing	-6128
tering	-6129
▁doctr	-6130
▁drawn	-6131
▁skill	-6132
▁retain	-6133
▁unrest	-6134
▁avoided	-6135
▁written	-6136
▁approved	-6137
▁accounted	-6138
▁compelling	-6139
cut	-6140
tar	-6141
yan	-6142
▁eg	-6143
hand	-6144
such	-6145
uate	-6146
▁eye	-6147
▁neo	-6148
▁sdr	-6149
child	-6150
icial	-6151
▁belt	-6152
▁card	-6153
▁cate	-6154
▁ease	-6155
▁exem	-6156
▁knew	-6157
▁sdgs	-6158
▁symp	-6159
energy	-6160
minded	-6161
ocracy	-6162
▁1970’	-6163
▁manif	-6164
▁sites	-6165
essions	-6166
▁notion	-6167
▁privat	-6168
▁sooner	-6169
▁cheaper	-6170
▁enlarge	-6171
▁entered	-6172
▁restric	-6173
▁skilled	-6174
▁complain	-6175
▁constant	-6176
▁mistakes	-6177
▁openness	-6178
▁original	-6179
▁persuade	-6180
▁surround	-6181
▁communism	-6182
▁construct	-6183
▁redistrib	-6184
▁complement	-6185
▁reinforced	-6186
zb	-6187
imm	-6188
▁mu	-6189
pper	-6190
▁bio	-6191
▁cab	-6192
▁meg	-6193
▁smo	-6194
water	-6195
▁2004	-6196
▁ally	-6197
▁cart	-6198
▁dign	-6199
▁jews	-6200
▁myth	-6201
▁pose	-6202
▁rock	-6203
accept	-6204
icated	-6205
▁books	-6206
▁davos	-6207
▁donor	-6208
▁grave	-6209
▁horiz	-6210
▁navig	-6211
▁seats	-6212
zbollah	-6213
▁dispos	-6214
▁famous	-6215
▁marked	-6216
▁recall	-6217
▁scarce	-6218
▁article	-6219
▁binding	-6220
▁convers	-6221
▁enacted	-6222
▁prepare	-6223
▁pursuit	-6224
▁conclude	-6225
▁estimate	-6226
▁overseas	-6227
▁advocates	-6228
▁desperate	-6229
▁presented	-6230
▁resilient	-6231
▁sensitive	-6232
▁dysfunction	-6233
▁concentrated	-6234
▁ip	-6235
born	-6236
iest	-6237
mony	-6238
▁abd	-6239
▁eld	-6240
▁tri	-6241
▁wen	-6242
ivery	-6243
makers	-6244
▁brain	-6245
▁disar	-6246
▁juris	-6247
▁somal	-6248
▁degrad	-6249
▁fellow	-6250
▁foster	-6251
▁judges	-6252
▁weapon	-6253
▁fashion	-6254
▁granted	-6255
▁joining	-6256
▁landing	-6257
▁lasting	-6258
▁paralle	-6259
▁testing	-6260
▁autonomy	-6261
▁findings	-6262
government	-6263
▁disasters	-6264
▁existence	-6265
▁intention	-6266
▁operation	-6267
▁shortages	-6268
▁disruption	-6269
▁trajectory	-6270
▁accountable	-6271
▁adjustments	-6272
▁influential	-6273
▁transformed	-6274
▁considerations	-6275
6,	-6276
cra	-6277
fri	-6278
uff	-6279
win	-6280
▁7.	-6281
▁bip	-6282
sheet	-6283
▁alto	-6284
▁jump	-6285
▁toll	-6286
ighter	-6287
irable	-6288
▁2005,	-6289
▁adult	-6290
▁align	-6291
▁jihad	-6292
▁dispar	-6293
▁incumb	-6294
▁unfair	-6295
▁unions	-6296
▁picture	-6297
▁portfol	-6298
▁rightly	-6299
▁adoption	-6300
▁anywhere	-6301
▁balances	-6302
▁disinteg	-6303
▁ideology	-6304
▁overlook	-6305
▁taxation	-6306
▁interpret	-6307
▁involving	-6308
▁mortality	-6309
▁enterprise	-6310
▁procedures	-6311
▁eliminating	-6312
▁legislative	-6313
▁revolutions	-6314
▁temperature	-6315
▁catastrophic	-6316
▁conservatives	-6317
bed	-6318
iev	-6319
kyo	-6320
len	-6321
abwe	-6322
band	-6323
ests	-6324
ivot	-6325
real	-6326
scow	-6327
▁hes	-6328
▁tum	-6329
inger	-6330
ophob	-6331
▁blue	-6332
▁cope	-6333
▁ends	-6334
▁meat	-6335
▁onto	-6336
▁plum	-6337
▁pull	-6338
▁scot	-6339
▁word	-6340
▁zimb	-6341
indust	-6342
▁abund	-6343
▁livel	-6344
▁plaus	-6345
▁print	-6346
▁roads	-6347
▁tokyo	-6348
forward	-6349
▁bodies	-6350
▁exists	-6351
▁fields	-6352
▁marine	-6353
▁master	-6354
▁moscow	-6355
▁resent	-6356
building	-6357
▁austria	-6358
▁dioxide	-6359
▁disturb	-6360
▁forests	-6361
▁accident	-6362
▁brothers	-6363
▁enhanced	-6364
▁epidemic	-6365
▁indicate	-6366
▁inherent	-6367
▁invasion	-6368
▁malaysia	-6369
▁reversed	-6370
▁zimbabwe	-6371
▁competing	-6372
▁hezbollah	-6373
▁integrity	-6374
▁naturally	-6375
▁prominent	-6376
▁protected	-6377
▁succeeded	-6378
▁contradict	-6379
▁retirement	-6380
▁importantly	-6381
▁supervision	-6382
▁difficulties	-6383
aks	-6384
nel	-6385
sch	-6386
uls	-6387
▁24	-6388
▁27	-6389
▁rw	-6390
▁ze	-6391
coni	-6392
fire	-6393
fund	-6394
lets	-6395
outs	-6396
▁cas	-6397
itime	-6398
▁aiib	-6399
▁fine	-6400
▁heat	-6401
▁lawy	-6402
▁sets	-6403
▁silk	-6404
urance	-6405
▁2013.	-6406
▁amend	-6407
▁dutch	-6408
▁elder	-6409
▁hydro	-6410
▁saved	-6411
▁tasks	-6412
respons	-6413
ressing	-6414
▁berlus	-6415
▁explos	-6416
▁jewish	-6417
▁namely	-6418
▁richer	-6419
▁ancient	-6420
▁anxiety	-6421
▁arguing	-6422
▁feeling	-6423
▁germans	-6424
▁grounds	-6425
▁preserv	-6426
▁approval	-6427
▁exposure	-6428
▁implicit	-6429
▁mutually	-6430
▁scotland	-6431
▁troubled	-6432
▁explained	-6433
▁extensive	-6434
▁motivated	-6435
▁reporting	-6436
▁residents	-6437
▁restoring	-6438
▁livelihood	-6439
▁persistent	-6440
▁prevention	-6441
▁responding	-6442
▁supposedly	-6443
▁unilateral	-6444
▁catastrophe	-6445
▁contraction	-6446
▁traditionally	-6447
ana	-6448
high	-6449
irty	-6450
orsi	-6451
ruck	-6452
▁bab	-6453
▁pul	-6454
▁spl	-6455
grade	-6456
loyed	-6457
print	-6458
▁date	-6459
▁rain	-6460
▁tech	-6461
▁unle	-6462
▁2006,	-6463
▁crops	-6464
▁czech	-6465
▁hitler	-6466
▁lowest	-6467
▁rescue	-6468
▁upward	-6469
iversity	-6470
▁ratings	-6471
▁talking	-6472
▁tragedy	-6473
▁familiar	-6474
▁generous	-6475
▁hollande	-6476
▁recorded	-6477
▁resolved	-6478
▁worrying	-6479
▁altogether	-6480
▁berlusconi	-6481
▁interested	-6482
▁involvement	-6483
▁announcement	-6484
▁inflationary	-6485
▁sufficiently	-6486
25	-6487
60	-6488
di	-6489
500	-6490
add	-6491
▁4%	-6492
emen	-6493
rors	-6494
umph	-6495
▁rol	-6496
itzer	-6497
oping	-6498
prime	-6499
utors	-6500
▁acts	-6501
▁biod	-6502
▁jean	-6503
▁spot	-6504
stable	-6505
▁2010.	-6506
▁bench	-6507
▁cease	-6508
▁chaos	-6509
▁morsi	-6510
▁plays	-6511
▁pound	-6512
largest	-6513
▁albeit	-6514
▁asking	-6515
▁chosen	-6516
▁backing	-6517
▁georgia	-6518
▁juncker	-6519
▁premier	-6520
▁shifted	-6521
efficient	-6522
roportion	-6523
▁believes	-6524
▁channels	-6525
▁distinct	-6526
▁explains	-6527
▁foremost	-6528
▁occasion	-6529
▁scholars	-6530
▁unaccept	-6531
▁divisions	-6532
▁keynesian	-6533
▁emphasized	-6534
▁expression	-6535
▁extremists	-6536
▁enlargement	-6537
▁accelerating	-6538
▁administrative	-6539
ca	-6540
ago	-6541
cel	-6542
spe	-6543
thy	-6544
berg	-6545
iary	-6546
iful	-6547
ilib	-6548
rium	-6549
▁ble	-6550
ester	-6551
▁2001	-6552
▁halt	-6553
▁male	-6554
▁ster	-6555
inated	-6556
invest	-6557
▁2017,	-6558
▁basel	-6559
▁conce	-6560
▁enfor	-6561
▁finds	-6562
▁likel	-6563
▁recap	-6564
iations	-6565
▁belong	-6566
▁detect	-6567
▁funded	-6568
▁headed	-6569
▁marria	-6570
▁volume	-6571
▁dilemma	-6572
▁relying	-6573
▁tactics	-6574
▁triumph	-6575
▁younger	-6576
▁doctrine	-6577
▁dominate	-6578
▁earnings	-6579
▁famously	-6580
▁investor	-6581
▁maritime	-6582
▁monopoly	-6583
▁proclaim	-6584
▁russians	-6585
▁sensible	-6586
▁cooperate	-6587
▁inability	-6588
▁introduce	-6589
▁premature	-6590
▁reinforce	-6591
▁secondary	-6592
▁socialist	-6593
▁infectious	-6594
▁competitors	-6595
▁constrained	-6596
▁livelihoods	-6597
▁controversial	-6598
▁disproportion	-6599
▁communications	-6600
fr	-6601
afi	-6602
alf	-6603
ani	-6604
indu	-6605
made	-6606
oles	-6607
stit	-6608
▁ath	-6609
▁seg	-6610
orted	-6611
ourse	-6612
vency	-6613
▁2005	-6614
▁burd	-6615
▁deny	-6616
▁outf	-6617
▁quot	-6618
▁tons	-6619
orship	-6620
▁brand	-6621
▁clash	-6622
▁happy	-6623
▁honor	-6624
▁seize	-6625
sharing	-6626
▁abuses	-6627
▁advent	-6628
▁doubts	-6629
▁inject	-6630
▁poorly	-6631
▁prompt	-6632
▁ratios	-6633
▁struck	-6634
▁charter	-6635
▁exploit	-6636
▁illness	-6637
▁pacific	-6638
▁possess	-6639
▁regular	-6640
▁convince	-6641
▁division	-6642
▁striking	-6643
▁superior	-6644
▁civilians	-6645
▁forecasts	-6646
▁princeton	-6647
▁criticized	-6648
▁prevailing	-6649
▁biodiversity	-6650
90	-6651
oy	-6652
bas	-6653
dig	-6654
ils	-6655
▁7%	-6656
anes	-6657
athy	-6658
icon	-6659
rect	-6660
soft	-6661
tail	-6662
▁ceo	-6663
▁nom	-6664
edded	-6665
idden	-6666
tered	-6667
▁abol	-6668
▁math	-6669
▁melt	-6670
▁rand	-6671
▁vary	-6672
advant	-6673
gorith	-6674
necess	-6675
▁2014.	-6676
▁blind	-6677
▁input	-6678
▁moham	-6679
▁sight	-6680
▁zones	-6681
alities	-6682
▁cyprus	-6683
▁looked	-6684
▁sacrif	-6685
▁citizen	-6686
▁enemies	-6687
▁fastest	-6688
▁switzer	-6689
▁constitu	-6690
▁delivery	-6691
▁facility	-6692
▁features	-6693
▁software	-6694
▁benchmark	-6695
▁collapsed	-6696
▁fertility	-6697
▁safeguard	-6698
▁successor	-6699
▁guaranteed	-6700
▁optimistic	-6701
▁recognizes	-6702
▁treatments	-6703
▁weaknesses	-6704
▁arrangement	-6705
▁switzerland	-6706
▁deflationary	-6707
▁straightforward	-6708
);	-6709
mas	-6710
pal	-6711
raf	-6712
ille	-6713
ione	-6714
rain	-6715
rial	-6716
▁fit	-6717
▁lis	-6718
▁raw	-6719
▁unh	-6720
aning	-6721
ifies	-6722
polit	-6723
tical	-6724
▁bust	-6725
▁cens	-6726
▁fasc	-6727
▁grav	-6728
▁reap	-6729
active	-6730
friend	-6731
ounced	-6732
▁2030.	-6733
▁catal	-6734
▁entry	-6735
▁fluct	-6736
▁hence	-6737
▁irish	-6738
▁sheet	-6739
▁stark	-6740
▁stood	-6741
▁sympt	-6742
▁train	-6743
▁flawed	-6744
▁invent	-6745
▁reagan	-6746
▁resign	-6747
▁rooted	-6748
▁versus	-6749
cription	-6750
▁cabinet	-6751
▁ceiling	-6752
▁customs	-6753
▁distant	-6754
▁erupted	-6755
▁hillary	-6756
▁immense	-6757
▁intense	-6758
▁lacking	-6759
▁scandal	-6760
▁surpass	-6761
▁waiting	-6762
▁entrench	-6763
▁meantime	-6764
▁realized	-6765
▁soldiers	-6766
▁disadvant	-6767
▁principal	-6768
▁allocation	-6769
▁confronted	-6770
▁commodities	-6771
▁consideration	-6772
big	-6773
ghi	-6774
lex	-6775
rav	-6776
sen	-6777
tra	-6778
agon	-6779
spec	-6780
uity	-6781
▁300	-6782
▁bes	-6783
▁boe	-6784
▁kar	-6785
▁map	-6786
▁mck	-6787
atism	-6788
chain	-6789
▁auth	-6790
▁laid	-6791
▁mism	-6792
▁suic	-6793
brexit	-6794
mament	-6795
owners	-6796
▁dying	-6797
▁giant	-6798
▁innoc	-6799
astrous	-6800
general	-6801
▁career	-6802
▁exclus	-6803
▁fairly	-6804
▁refuse	-6805
▁remove	-6806
▁rwanda	-6807
▁drivers	-6808
▁element	-6809
▁algorith	-6810
▁criteria	-6811
▁declines	-6812
▁employed	-6813
▁holdings	-6814
▁laureate	-6815
▁missiles	-6816
▁observed	-6817
▁purposes	-6818
▁volatile	-6819
▁accepting	-6820
▁affecting	-6821
▁computers	-6822
▁discussed	-6823
▁initiated	-6824
▁integrate	-6825
▁intervene	-6826
▁disastrous	-6827
▁propaganda	-6828
▁assumptions	-6829
▁corporation	-6830
▁desperately	-6831
▁functioning	-6832
▁predictable	-6833
▁respectively	-6834
▁proliferation	-6835
70	-6836
aids	-6837
coin	-6838
gers	-6839
owed	-6840
view	-6841
▁191	-6842
▁mira	-6843
▁note	-6844
▁sequ	-6845
▁sino	-6846
▁suit	-6847
ispens	-6848
rators	-6849
▁ample	-6850
▁mckin	-6851
▁route	-6852
▁adhere	-6853
▁begins	-6854
▁contag	-6855
▁conven	-6856
▁cycles	-6857
▁greens	-6858
▁landsc	-6859
▁parity	-6860
▁physic	-6861
▁uganda	-6862
▁upgrad	-6863
▁aspects	-6864
▁closest	-6865
▁coastal	-6866
▁fishing	-6867
▁focuses	-6868
▁periods	-6869
▁plummet	-6870
▁reduces	-6871
▁schemes	-6872
▁somehow	-6873
▁spurred	-6874
▁actively	-6875
▁claiming	-6876
▁founding	-6877
▁incorpor	-6878
▁indebted	-6879
▁intermed	-6880
▁steadily	-6881
▁teachers	-6882
▁alliances	-6883
▁attempted	-6884
▁brazilian	-6885
▁acceptable	-6886
▁likelihood	-6887
▁monitoring	-6888
▁experiences	-6889
▁represented	-6890
▁underpinned	-6891
zh	-6892
arr	-6893
ses	-6894
ude	-6895
▁23	-6896
▁cd	-6897
atar	-6898
gent	-6899
olas	-6900
outh	-6901
stan	-6902
▁haz	-6903
▁ran	-6904
▁rum	-6905
▁son	-6906
▁2003	-6907
▁diet	-6908
▁hero	-6909
▁love	-6910
▁marx	-6911
▁snow	-6912
▁trem	-6913
▁uphe	-6914
▁bills	-6915
▁cohes	-6916
▁dereg	-6917
▁facto	-6918
▁fault	-6919
▁inequ	-6920
▁overt	-6921
▁pione	-6922
▁remed	-6923
▁unequ	-6924
▁valid	-6925
iration	-6926
▁blamed	-6927
▁cataly	-6928
▁draghi	-6929
▁exempl	-6930
▁forget	-6931
▁judici	-6932
▁lisbon	-6933
▁memory	-6934
▁missed	-6935
▁trials	-6936
▁applies	-6937
▁classes	-6938
▁declare	-6939
▁earthqu	-6940
▁elderly	-6941
▁francis	-6942
▁municip	-6943
▁pledged	-6944
▁warfare	-6945
▁arguably	-6946
▁embraced	-6947
▁produces	-6948
▁widening	-6949
▁destroyed	-6950
▁plausible	-6951
▁collateral	-6952
▁definition	-6953
▁delivering	-6954
▁discovered	-6955
▁explicitly	-6956
▁achievement	-6957
▁settlements	-6958
▁acknowledged	-6959
▁bureaucratic	-6960
80	-6961
ko	-6962
sm	-6963
irm	-6964
▁(1	-6965
▁21	-6966
fold	-6967
reen	-6968
▁isn	-6969
▁sem	-6970
itate	-6971
▁brib	-6972
▁depr	-6973
▁feas	-6974
▁flee	-6975
▁lift	-6976
▁mood	-6977
▁pays	-6978
▁peru	-6979
imated	-6980
incing	-6981
thodox	-6982
▁deriv	-6983
▁lived	-6984
▁ranks	-6985
ounding	-6986
▁absent	-6987
▁endors	-6988
▁relies	-6989
▁robots	-6990
▁smooth	-6991
▁solely	-6992
▁voices	-6993
ilibrium	-6994
quarters	-6995
▁deserve	-6996
▁details	-6997
▁dignity	-6998
▁harmful	-6999
▁placing	-7000
▁prefere	-7001
▁privacy	-7002
▁somalia	-7003
▁statist	-7004
▁twitter	-7005
▁mckinsey	-7006
▁unnecess	-7007
▁exchanges	-7008
▁imbalance	-7009
▁judiciary	-7010
▁insecurity	-7011
▁punishment	-7012
▁reflecting	-7013
▁suggesting	-7014
▁existential	-7015
▁predictions	-7016
▁constructive	-7017
▁stakeholders	-7018
▁destabilizing	-7019
▁professionals	-7020
gue	-7021
▁70	-7022
hani	-7023
igen	-7024
long	-7025
lymp	-7026
ocur	-7027
orks	-7028
ught	-7029
▁coc	-7030
▁lad	-7031
▁mah	-7032
▁yen	-7033
ivate	-7034
▁flag	-7035
▁jail	-7036
▁roll	-7037
▁tsun	-7038
▁2012.	-7039
▁coinc	-7040
▁games	-7041
▁hyper	-7042
▁inher	-7043
▁kyoto	-7044
▁loyal	-7045
▁olymp	-7046
▁enrich	-7047
▁ethics	-7048
▁fisher	-7049
▁precip	-7050
▁regist	-7051
▁repair	-7052
▁stated	-7053
▁turbul	-7054
▁algeria	-7055
▁bolster	-7056
▁legally	-7057
▁release	-7058
▁student	-7059
▁telling	-7060
▁ambition	-7061
▁assuming	-7062
▁clearing	-7063
▁cyclical	-7064
▁fraction	-7065
▁frontier	-7066
▁manifest	-7067
▁supervis	-7068
corruption	-7069
▁advancing	-7070
▁confirmed	-7071
▁cryptocur	-7072
▁employers	-7073
▁overwhelm	-7074
▁receiving	-7075
▁returning	-7076
▁comparison	-7077
▁complexity	-7078
▁diminished	-7079
▁frameworks	-7080
▁violations	-7081
▁accordingly	-7082
▁distributed	-7083
▁architecture	-7084
▁contemporary	-7085
▁concentration	-7086
oo	-7087
akh	-7088
any	-7089
anz	-7090
col	-7091
due	-7092
igm	-7093
rut	-7094
▁tv	-7095
haul	-7096
prol	-7097
▁hen	-7098
▁ing	-7099
▁rid	-7100
craft	-7101
haust	-7102
itely	-7103
▁diam	-7104
▁inex	-7105
▁rent	-7106
▁rome	-7107
▁shia	-7108
▁town	-7109
morrow	-7110
▁empir	-7111
▁merit	-7112
▁mixed	-7113
▁piece	-7114
▁suppl	-7115
▁animal	-7116
▁helium	-7117
▁occurs	-7118
▁vested	-7119
▁animals	-7120
▁bitcoin	-7121
▁complac	-7122
▁follows	-7123
▁looming	-7124
▁advocate	-7125
▁attitude	-7126
▁carrying	-7127
▁cultures	-7128
▁entering	-7129
▁indirect	-7130
▁involves	-7131
▁reminder	-7132
▁tomorrow	-7133
controlled	-7134
industrial	-7135
▁ironically	-7136
▁containment	-7137
▁distortions	-7138
▁achievements	-7139
▁expansionary	-7140
▁confrontation	-7141
▁protectionist	-7142
yc	-7143
▁gh	-7144
▁zh	-7145
anim	-7146
ball	-7147
city	-7148
cure	-7149
kers	-7150
roll	-7151
velt	-7152
well	-7153
▁amr	-7154
▁cum	-7155
▁fan	-7156
▁jer	-7157
ivals	-7158
vered	-7159
▁doom	-7160
▁duty	-7161
▁erod	-7162
▁luck	-7163
▁modi	-7164
▁nazi	-7165
▁perv	-7166
▁roma	-7167
▁rush	-7168
▁wolf	-7169
▁fried	-7170
▁gases	-7171
▁maybe	-7172
▁notes	-7173
▁split	-7174
osevelt	-7175
western	-7176
▁agents	-7177
▁assist	-7178
▁cambod	-7179
▁embark	-7180
▁formed	-7181
▁harmon	-7182
▁honest	-7183
▁inflic	-7184
▁tempor	-7185
▁valley	-7186
ologists	-7187
▁devices	-7188
▁reading	-7189
▁venture	-7190
▁coherent	-7191
▁colonial	-7192
▁creditor	-7193
▁demanded	-7194
▁engaging	-7195
▁informed	-7196
▁minimize	-7197
▁outflows	-7198
▁quarters	-7199
▁speaking	-7200
▁tackling	-7201
ispensable	-7202
▁campaigns	-7203
▁happiness	-7204
▁preferred	-7205
▁realities	-7206
▁adaptation	-7207
▁challenged	-7208
▁millennium	-7209
▁politician	-7210
▁aspirations	-7211
▁comparative	-7212
▁destructive	-7213
▁exacerbated	-7214
▁speculative	-7215
▁transaction	-7216
▁deleveraging	-7217
br	-7218
eth	-7219
glo	-7220
jud	-7221
rud	-7222
aked	-7223
left	-7224
▁ost	-7225
cking	-7226
exist	-7227
▁amaz	-7228
▁bias	-7229
▁buff	-7230
▁club	-7231
▁cure	-7232
▁deem	-7233
▁evil	-7234
▁mold	-7235
▁tank	-7236
▁warm	-7237
▁2004,	-7238
▁apple	-7239
▁categ	-7240
▁escap	-7241
▁james	-7242
▁rigid	-7243
▁uncom	-7244
society	-7245
▁anemic	-7246
▁lately	-7247
▁paraly	-7248
▁revive	-7249
▁compact	-7250
▁corresp	-7251
▁discont	-7252
▁doubled	-7253
▁drought	-7254
▁exhaust	-7255
▁neutral	-7256
▁reconst	-7257
▁retreat	-7258
▁tension	-7259
▁visible	-7260
▁choosing	-7261
▁deployed	-7262
▁discover	-7263
▁generals	-7264
▁marriage	-7265
▁optimism	-7266
▁overhaul	-7267
▁pensions	-7268
▁theories	-7269
▁xiaoping	-7270
▁attracted	-7271
▁childhood	-7272
▁desirable	-7273
▁greenspan	-7274
▁headlines	-7275
▁landscape	-7276
▁roosevelt	-7277
▁selection	-7278
▁ukrainian	-7279
▁ecosystems	-7280
▁popularity	-7281
▁financially	-7282
▁interdepend	-7283
▁operational	-7284
▁temporarily	-7285
proliferation	-7286
▁introduction	-7287
▁reconciliation	-7288
tw	-7289
wi	-7290
▁.	-7291
5%.	-7292
esh	-7293
ole	-7294
uce	-7295
▁6%	-7296
▁8%	-7297
aces	-7298
cell	-7299
oler	-7300
▁ech	-7301
▁tub	-7302
▁wto	-7303
icism	-7304
inces	-7305
semit	-7306
stein	-7307
unity	-7308
▁alar	-7309
▁caut	-7310
▁kick	-7311
▁lobb	-7312
▁salv	-7313
▁wins	-7314
urable	-7315
▁brink	-7316
▁draft	-7317
▁hoped	-7318
▁owned	-7319
▁tends	-7320
▁ultra	-7321
▁weigh	-7322
▁yemen	-7323
aunting	-7324
capital	-7325
oration	-7326
▁bright	-7327
▁denied	-7328
▁mother	-7329
▁overth	-7330
▁seeing	-7331
▁sphere	-7332
ceptions	-7333
communic	-7334
▁devoted	-7335
▁enables	-7336
▁factory	-7337
▁monitor	-7338
▁richest	-7339
▁vicious	-7340
mentation	-7341
▁borrowed	-7342
▁feasible	-7343
▁reckless	-7344
▁tendency	-7345
▁extremism	-7346
▁precedent	-7347
▁screening	-7348
▁ecological	-7349
▁renewables	-7350
▁unexpected	-7351
▁dangerously	-7352
▁unification	-7353
▁interconnected	-7354
gi	-7355
ara	-7356
eva	-7357
ipe	-7358
och	-7359
▁28	-7360
▁cn	-7361
atch	-7362
etty	-7363
onym	-7364
pres	-7365
▁hav	-7366
dated	-7367
great	-7368
▁1997	-7369
▁calm	-7370
▁cogn	-7371
▁dear	-7372
▁tail	-7373
▁tony	-7374
▁zeal	-7375
addafi	-7376
arians	-7377
orious	-7378
reform	-7379
▁2020.	-7380
▁deput	-7381
▁drove	-7382
▁enemy	-7383
▁fraud	-7384
▁grows	-7385
▁incon	-7386
▁iraqi	-7387
▁moroc	-7388
▁phone	-7389
▁resur	-7390
▁scrut	-7391
▁seeds	-7392
▁spill	-7393
▁waves	-7394
leading	-7395
uration	-7396
▁calcul	-7397
▁circle	-7398
▁crimea	-7399
▁freely	-7400
▁geneva	-7401
▁letter	-7402
▁pledge	-7403
▁reveal	-7404
▁stakes	-7405
▁suspic	-7406
▁therap	-7407
chnology	-7408
▁acquire	-7409
▁concess	-7410
▁convict	-7411
▁farming	-7412
▁finland	-7413
▁lawyers	-7414
▁displace	-7415
▁enduring	-7416
▁frequent	-7417
▁meltdown	-7418
▁obstacle	-7419
▁securing	-7420
▁contained	-7421
▁hospitals	-7422
▁strongest	-7423
▁undertake	-7424
▁capitalist	-7425
▁components	-7426
▁creativity	-7427
▁exacerbate	-7428
▁guidelines	-7429
▁unemployed	-7430
▁degradation	-7431
▁differently	-7432
▁equilibrium	-7433
▁highlighted	-7434
▁conservation	-7435
▁transmission	-7436
▁dysfunctional	-7437
cup	-7438
ito	-7439
oul	-7440
▁gi	-7441
-199	-7442
ixon	-7443
that	-7444
▁192	-7445
▁bed	-7446
▁god	-7447
▁sky	-7448
▁tor	-7449
eland	-7450
omics	-7451
▁asym	-7452
▁site	-7453
▁tied	-7454
▁unus	-7455
resist	-7456
▁1930’	-7457
▁admit	-7458
▁arsen	-7459
▁burst	-7460
▁consc	-7461
▁depth	-7462
▁hedge	-7463
▁incre	-7464
▁macri	-7465
▁rally	-7466
▁touch	-7467
station	-7468
▁serves	-7469
▁spiral	-7470
capacity	-7471
▁carries	-7472
▁revival	-7473
▁shaping	-7474
▁typical	-7475
▁2008-200	-7476
▁directed	-7477
▁hegemony	-7478
▁imported	-7479
▁israelis	-7480
▁judicial	-7481
▁maximize	-7482
▁troubles	-7483
▁appealing	-7484
▁disappear	-7485
▁emphasize	-7486
▁followers	-7487
▁magnitude	-7488
▁successes	-7489
▁instrument	-7490
▁intentions	-7491
▁irrelevant	-7492
▁occupation	-7493
▁centralized	-7494
▁disarmament	-7495
▁foreseeable	-7496
▁reinforcing	-7497
▁requirement	-7498
▁availability	-7499
▁unacceptable	-7500
▁indispensable	-7501
▁disintegration	-7502
bu	-7503
ek	-7504
200	-7505
asy	-7506
cul	-7507
zed	-7508
cend	-7509
cked	-7510
offs	-7511
rier	-7512
uman	-7513
▁1.5	-7514
▁bay	-7515
▁bos	-7516
▁dod	-7517
▁rac	-7518
▁tap	-7519
aming	-7520
astic	-7521
emics	-7522
sider	-7523
▁1960	-7524
▁beat	-7525
▁film	-7526
▁fool	-7527
▁leap	-7528
▁subt	-7529
▁tens	-7530
backed	-7531
global	-7532
taking	-7533
theast	-7534
▁cards	-7535
▁flaws	-7536
▁marsh	-7537
▁nixon	-7538
▁panic	-7539
▁qaeda	-7540
▁roles	-7541
connect	-7542
▁bought	-7543
▁corner	-7544
▁detain	-7545
▁obtain	-7546
▁permit	-7547
▁purely	-7548
▁assault	-7549
▁contest	-7550
▁curtail	-7551
▁mexican	-7552
▁morocco	-7553
▁senator	-7554
▁signals	-7555
▁smoking	-7556
▁adjusted	-7557
▁breaking	-7558
▁defaults	-7559
▁diagnost	-7560
▁embedded	-7561
▁equipped	-7562
▁implying	-7563
▁regulate	-7564
investment	-7565
performing	-7566
▁accession	-7567
▁buildings	-7568
▁churchill	-7569
▁equitable	-7570
▁islamists	-7571
▁justified	-7572
▁medicines	-7573
▁pragmatic	-7574
▁preparing	-7575
▁providers	-7576
▁recapital	-7577
denominated	-7578
▁adequately	-7579
▁biological	-7580
▁constitute	-7581
▁earthquake	-7582
▁electorate	-7583
▁highlights	-7584
▁recessions	-7585
▁sanitation	-7586
▁exclusively	-7587
▁characteristics	-7588
hy	-7589
des	-7590
kov	-7591
nor	-7592
ois	-7593
vis	-7594
ador	-7595
hman	-7596
ront	-7597
trad	-7598
▁liv	-7599
▁ped	-7600
▁ven	-7601
asant	-7602
dered	-7603
inter	-7604
shore	-7605
▁door	-7606
▁stif	-7607
▁veto	-7608
guided	-7609
uggish	-7610
▁2003,	-7611
▁actor	-7612
▁ahmad	-7613
▁alien	-7614
▁mario	-7615
▁naval	-7616
▁qatar	-7617
▁quiet	-7618
▁relax	-7619
▁stret	-7620
▁stuck	-7621
▁vigor	-7622
comings	-7623
enophob	-7624
inction	-7625
▁behave	-7626
▁mental	-7627
▁plural	-7628
▁saddam	-7629
▁window	-7630
▁worker	-7631
cyclical	-7632
idential	-7633
▁arrived	-7634
▁combine	-7635
▁discred	-7636
▁display	-7637
▁evolved	-7638
▁implied	-7639
▁impover	-7640
▁indefin	-7641
▁stagger	-7642
▁strikes	-7643
▁tremend	-7644
▁unified	-7645
▁amounted	-7646
▁captured	-7647
▁daunting	-7648
▁diminish	-7649
▁dividend	-7650
▁insights	-7651
▁judgment	-7652
▁orthodox	-7653
▁producer	-7654
▁shortage	-7655
▁treating	-7656
▁watching	-7657
▁whenever	-7658
democratic	-7659
▁criminals	-7660
▁empirical	-7661
▁extending	-7662
▁factories	-7663
▁imperfect	-7664
▁incumbent	-7665
▁northeast	-7666
▁oversight	-7667
▁regularly	-7668
▁shrinking	-7669
▁deterrence	-7670
▁provisions	-7671
▁anticipated	-7672
▁frustration	-7673
▁territories	-7674
▁evolutionary	-7675
▁shortcomings	-7676
▁vulnerabilities	-7677
”:	-7678
▁,	-7679
5%,	-7680
dec	-7681
osm	-7682
▁da	-7683
izer	-7684
▁11,	-7685
▁cup	-7686
▁inj	-7687
▁kil	-7688
▁pik	-7689
eters	-7690
▁bosn	-7691
▁guid	-7692
▁mart	-7693
▁sees	-7694
▁tang	-7695
financ	-7696
▁angry	-7697
▁breat	-7698
▁brief	-7699
▁eurob	-7700
▁lands	-7701
▁proud	-7702
▁revel	-7703
▁safer	-7704
▁adults	-7705
▁bashar	-7706
▁bridge	-7707
▁lifest	-7708
▁losers	-7709
▁mathem	-7710
▁shaped	-7711
▁enlight	-7712
▁horizon	-7713
▁issuing	-7714
▁migrant	-7715
▁mineral	-7716
▁notable	-7717
▁piketty	-7718
▁ranging	-7719
▁request	-7720
▁soaring	-7721
▁traders	-7722
▁village	-7723
▁worries	-7724
▁audience	-7725
▁cambodia	-7726
▁governed	-7727
▁innocent	-7728
▁inspired	-7729
▁socially	-7730
▁stemming	-7731
▁unstable	-7732
▁xenophob	-7733
▁crackdown	-7734
▁diagnosis	-7735
▁genuinely	-7736
▁newspaper	-7737
▁nutrition	-7738
▁recovered	-7739
▁rejection	-7740
information	-7741
responsible	-7742
▁appreciate	-7743
▁convincing	-7744
▁officially	-7745
▁temptation	-7746
▁undermines	-7747
▁controlling	-7748
▁cooperative	-7749
▁distinguish	-7750
▁speculation	-7751
▁accumulation	-7752
▁collectively	-7753
▁interference	-7754
▁polarization	-7755
▁normalization	-7756
▁transnational	-7757
15	-7758
cs	-7759
asp	-7760
cks	-7761
▁du	-7762
educ	-7763
orse	-7764
utor	-7765
▁hem	-7766
▁lev	-7767
▁row	-7768
comed	-7769
digit	-7770
▁edge	-7771
▁ipcc	-7772
▁meth	-7773
▁odds	-7774
▁ramp	-7775
▁sake	-7776
▁shin	-7777
ilater	-7778
redict	-7779
▁alarm	-7780
▁consp	-7781
▁patri	-7782
▁store	-7783
▁topic	-7784
anthrop	-7785
economy	-7786
▁asians	-7787
▁lifted	-7788
▁oceans	-7789
▁relent	-7790
▁relied	-7791
▁burning	-7792
▁dismant	-7793
▁exceeds	-7794
▁richard	-7795
▁surface	-7796
▁suspect	-7797
▁unknown	-7798
▁unpopul	-7799
▁winners	-7800
▁writing	-7801
financial	-7802
▁acquired	-7803
▁arrested	-7804
▁distress	-7805
▁dynamism	-7806
▁interact	-7807
▁isolated	-7808
▁parallel	-7809
▁appointed	-7810
▁decentral	-7811
▁discovery	-7812
▁scenarios	-7813
▁spreading	-7814
▁abandoning	-7815
▁benefiting	-7816
▁compensate	-7817
▁eliminated	-7818
▁fragmented	-7819
▁impression	-7820
▁incomplete	-7821
▁irrational	-7822
▁continental	-7823
▁disruptions	-7824
▁predecessor	-7825
▁commentators	-7826
▁representing	-7827
▁determination	-7828
zo	-7829
ael	-7830
err	-7831
gal	-7832
jad	-7833
str	-7834
brid	-7835
rase	-7836
zing	-7837
▁ice	-7838
▁kaz	-7839
▁lic	-7840
▁pil	-7841
▁voc	-7842
▁wil	-7843
archy	-7844
backs	-7845
icago	-7846
iques	-7847
olved	-7848
speed	-7849
utive	-7850
▁2002	-7851
▁aren	-7852
▁bulk	-7853
▁mdgs	-7854
▁plus	-7855
▁spok	-7856
inejad	-7857
▁2016.	-7858
▁bolst	-7859
▁crowd	-7860
▁flour	-7861
▁ignor	-7862
▁sched	-7863
▁sheer	-7864
▁squee	-7865
imately	-7866
version	-7867
▁advers	-7868
▁deepen	-7869
▁denial	-7870
▁fertil	-7871
▁floods	-7872
▁impede	-7873
▁taught	-7874
▁theore	-7875
▁thrive	-7876
election	-7877
▁100,000	-7878
▁affects	-7879
▁asymmet	-7880
▁classic	-7881
▁compare	-7882
▁consume	-7883
▁delayed	-7884
▁harness	-7885
▁sending	-7886
effective	-7887
▁distrust	-7888
▁equities	-7889
▁normally	-7890
▁warnings	-7891
▁welcomed	-7892
ilaterally	-7893
management	-7894
orestation	-7895
▁argentine	-7896
▁contagion	-7897
▁indicates	-7898
▁occurring	-7899
▁promotion	-7900
▁respected	-7901
▁translate	-7902
▁aggression	-7903
▁boundaries	-7904
▁correction	-7905
▁correspond	-7906
▁difficulty	-7907
▁discontent	-7908
▁disruptive	-7909
▁expectancy	-7910
▁liberation	-7911
▁obligation	-7912
▁advertising	-7913
▁approaching	-7914
▁excessively	-7915
▁preferences	-7916
▁restructure	-7917
▁predecessors	-7918
▁fragmentation	-7919
▁privatization	-7920
-7	-7921
ao	-7922
fif	-7923
fur	-7924
map	-7925
ups	-7926
vez	-7927
wii	-7928
▁22	-7929
▁ga	-7930
good	-7931
hana	-7932
redu	-7933
room	-7934
▁dil	-7935
▁kid	-7936
▁ron	-7937
ander	-7938
appro	-7939
fifth	-7940
front	-7941
immig	-7942
ounce	-7943
▁bund	-7944
▁fees	-7945
▁indo	-7946
▁jose	-7947
▁keen	-7948
▁pock	-7949
▁sect	-7950
▁stan	-7951
▁tide	-7952
▁tiny	-7953
mitted	-7954
▁2009.	-7955
▁alleg	-7956
▁camps	-7957
▁chose	-7958
▁ghana	-7959
▁incur	-7960
▁midst	-7961
▁vienn	-7962
defense	-7963
igation	-7964
▁branch	-7965
▁deadly	-7966
▁desert	-7967
▁injust	-7968
▁kazakh	-7969
▁oxford	-7970
▁resemb	-7971
▁timing	-7972
affected	-7973
friendly	-7974
▁enjoyed	-7975
▁serving	-7976
▁trained	-7977
▁tsunami	-7978
▁admitted	-7979
▁ambassad	-7980
▁cohesion	-7981
▁entities	-7982
▁fairness	-7983
▁guidance	-7984
▁impunity	-7985
▁insisted	-7986
▁predomin	-7987
▁tradable	-7988
ifications	-7989
▁addresses	-7990
▁amendment	-7991
▁cognitive	-7992
▁defending	-7993
▁departure	-7994
▁reforming	-7995
▁unpredict	-7996
▁upgrading	-7997
▁connection	-7998
▁peripheral	-7999
▁preserving	-8000
▁processing	-8001
▁sustaining	-8002
▁triggering	-8003
▁accumulated	-8004
▁bureaucrats	-8005
▁exceptional	-8006
▁ineffective	-8007
▁manufacturers	-8008
▁reconstruction	-8009
db	-8010
ef	-8011
300	-8012
alay	-8013
need	-8014
risk	-8015
zero	-8016
▁sri	-8017
ernal	-8018
fired	-8019
uated	-8020
uster	-8021
▁baby	-8022
▁chol	-8023
▁cool	-8024
▁fake	-8025
▁gene	-8026
▁heed	-8027
▁hide	-8028
▁resh	-8029
▁wife	-8030
iteers	-8031
ounder	-8032
regard	-8033
retion	-8034
▁2011.	-8035
▁2050,	-8036
▁color	-8037
▁marks	-8038
▁param	-8039
▁pivot	-8040
▁style	-8041
▁swift	-8042
▁towns	-8043
atories	-8044
▁bacter	-8045
▁barrel	-8046
▁behalf	-8047
▁bloody	-8048
▁deemed	-8049
▁deputy	-8050
▁drones	-8051
▁earned	-8052
▁excell	-8053
▁hidden	-8054
▁houses	-8055
▁images	-8056
▁length	-8057
▁nobody	-8058
▁poised	-8059
▁random	-8060
▁solved	-8061
▁upheav	-8062
▁vienna	-8063
inations	-8064
▁adviser	-8065
▁blocked	-8066
▁booming	-8067
▁burdens	-8068
▁chicago	-8069
▁damaged	-8070
▁debtors	-8071
▁degrees	-8072
▁disclos	-8073
▁forever	-8074
▁founded	-8075
▁gravity	-8076
▁orderly	-8077
▁penalty	-8078
▁suffers	-8079
▁unclear	-8080
▁whereby	-8081
▁describe	-8082
▁disputed	-8083
▁endorsed	-8084
▁promoted	-8085
▁removing	-8086
▁sluggish	-8087
productive	-8088
▁countless	-8089
▁illiberal	-8090
▁prevailed	-8091
▁professor	-8092
▁provinces	-8093
▁attracting	-8094
▁cumulative	-8095
▁entrenched	-8096
▁presumably	-8097
▁profitable	-8098
▁situations	-8099
▁staggering	-8100
▁undertaken	-8101
▁accelerated	-8102
▁experiments	-8103
▁interesting	-8104
▁protections	-8105
▁stabilizing	-8106
▁aggressively	-8107
▁connectivity	-8108
▁significance	-8109
▁recommendations	-8110
aug	-8111
hab	-8112
ker	-8113
sum	-8114
tor	-8115
uum	-8116
who	-8117
▁nc	-8118
agog	-8119
aret	-8120
burg	-8121
char	-8122
russ	-8123
▁box	-8124
▁cro	-8125
▁eat	-8126
▁nan	-8127
▁ric	-8128
▁rub	-8129
▁sam	-8130
▁sor	-8131
▁tay	-8132
▁van	-8133
added	-8134
ching	-8135
izers	-8136
▁cath	-8137
▁farc	-8138
▁fron	-8139
▁lank	-8140
▁nets	-8141
atible	-8142
incial	-8143
owered	-8144
valued	-8145
▁2030,	-8146
▁afflu	-8147
▁arabs	-8148
▁climb	-8149
▁grasp	-8150
▁plain	-8151
▁polio	-8152
▁recur	-8153
▁reloc	-8154
▁retal	-8155
▁rises	-8156
▁royal	-8157
▁throw	-8158
roughts	-8159
▁casual	-8160
▁dozens	-8161
▁lehman	-8162
▁munich	-8163
▁phones	-8164
▁reserv	-8165
▁rivers	-8166
▁soared	-8167
▁tragic	-8168
▁assumes	-8169
▁breakup	-8170
▁convert	-8171
▁endless	-8172
▁extends	-8173
▁johnson	-8174
▁refusal	-8175
▁silicon	-8176
▁urgency	-8177
▁vehicle	-8178
▁warrant	-8179
▁detailed	-8180
▁document	-8181
▁downside	-8182
▁droughts	-8183
▁excluded	-8184
▁ignoring	-8185
▁sciences	-8186
▁concerted	-8187
▁dividends	-8188
▁emotional	-8189
▁engineers	-8190
▁gathering	-8191
▁suppliers	-8192
▁troubling	-8193
▁censorship	-8194
▁collection	-8195
▁provincial	-8196
▁tremendous	-8197
withstanding	-8198
▁ahmadinejad	-8199
▁application	-8200
▁assessments	-8201
▁comfortable	-8202
▁introducing	-8203
▁parliaments	-8204
▁deliberately	-8205
▁deregulation	-8206
▁immunization	-8207
▁automatically	-8208
▁investigation	-8209
▁psychological	-8210
▁stabilization	-8211
ea	-8212
sa	-8213
wr	-8214
”)	-8215
lav	-8216
▁2,	-8217
▁ng	-8218
arus	-8219
▁boj	-8220
japan	-8221
start	-8222
▁2018	-8223
▁boss	-8224
▁feet	-8225
▁grim	-8226
▁hait	-8227
▁peer	-8228
▁soil	-8229
encing	-8230
german	-8231
manuel	-8232
profit	-8233
▁2017.	-8234
▁alive	-8235
▁alter	-8236
▁annex	-8237
▁chess	-8238
▁divor	-8239
▁drast	-8240
▁griev	-8241
▁judge	-8242
▁maneu	-8243
▁miles	-8244
▁music	-8245
▁steep	-8246
▁storm	-8247
▁trick	-8248
xiteers	-8249
▁approx	-8250
▁boards	-8251
▁darfur	-8252
▁differ	-8253
▁impris	-8254
▁ingred	-8255
▁listen	-8256
▁median	-8257
▁notice	-8258
▁orient	-8259
▁regain	-8260
▁rivals	-8261
▁savers	-8262
▁season	-8263
▁silent	-8264
▁tested	-8265
▁automob	-8266
▁dubious	-8267
▁linking	-8268
▁passing	-8269
▁rebuild	-8270
▁records	-8271
▁surveys	-8272
▁visited	-8273
developed	-8274
▁comprise	-8275
▁distance	-8276
▁offshore	-8277
▁paradigm	-8278
▁reversal	-8279
▁terrible	-8280
▁condemned	-8281
▁depending	-8282
▁dimension	-8283
▁diplomats	-8284
▁healthier	-8285
▁liability	-8286
▁misguided	-8287
▁municipal	-8288
▁personnel	-8289
▁prisoners	-8290
▁strengths	-8291
▁acceptance	-8292
▁algorithms	-8293
▁homeowners	-8294
▁kazakhstan	-8295
▁protracted	-8296
▁reluctance	-8297
▁statistical	-8298
▁fluctuations	-8299
▁impoverished	-8300
▁overcapacity	-8301
▁transforming	-8302
▁irresponsible	-8303
▁possibilities	-8304
▁overwhelmingly	-8305
avi	-8306
iat	-8307
ika	-8308
net	-8309
ych	-8310
▁nu	-8311
aker	-8312
asia	-8313
bial	-8314
ctic	-8315
ecks	-8316
thal	-8317
urpr	-8318
▁35%	-8319
▁dog	-8320
▁esp	-8321
▁mas	-8322
▁mir	-8323
▁tab	-8324
▁vik	-8325
egoti	-8326
ercul	-8327
esity	-8328
occup	-8329
oston	-8330
▁abst	-8331
▁anal	-8332
▁hike	-8333
▁kurd	-8334
▁sach	-8335
▁semi	-8336
▁wary	-8337
saving	-8338
siders	-8339
▁acted	-8340
▁cited	-8341
▁forge	-8342
▁indif	-8343
▁mayor	-8344
▁swiss	-8345
▁tells	-8346
▁unint	-8347
aughter	-8348
diction	-8349
quarter	-8350
ratives	-8351
▁boston	-8352
▁breach	-8353
▁breast	-8354
▁cleare	-8355
▁firmly	-8356
▁giants	-8357
▁lender	-8358
▁livest	-8359
▁pretty	-8360
▁racial	-8361
▁repeat	-8362
▁slogan	-8363
▁unfold	-8364
▁answers	-8365
▁authors	-8366
▁balkans	-8367
▁belarus	-8368
▁confirm	-8369
▁covered	-8370
▁encount	-8371
▁hegemon	-8372
▁himalay	-8373
▁solving	-8374
▁suicide	-8375
▁summers	-8376
▁tourism	-8377
erculosis	-8378
▁scrutiny	-8379
▁thatcher	-8380
▁undercut	-8381
▁combating	-8382
▁embracing	-8383
▁enhancing	-8384
▁exclusive	-8385
▁functions	-8386
▁interview	-8387
▁literally	-8388
development	-8389
▁brexiteers	-8390
▁complaints	-8391
▁discretion	-8392
▁electronic	-8393
▁misleading	-8394
▁motivation	-8395
▁techniques	-8396
▁diminishing	-8397
▁efficiently	-8398
▁facilitated	-8399
▁civilization	-8400
▁facilitating	-8401
▁tuberculosis	-8402
▁disappointing	-8403
▁notwithstanding	-8404
ima	-8405
pes	-8406
upp	-8407
cumb	-8408
ifer	-8409
pace	-8410
rian	-8411
step	-8412
▁ash	-8413
▁hat	-8414
▁lee	-8415
▁mov	-8416
▁sin	-8417
▁sle	-8418
aired	-8419
green	-8420
lined	-8421
ounds	-8422
pered	-8423
ruits	-8424
▁flat	-8425
▁hunt	-8426
▁krug	-8427
▁loos	-8428
▁nurt	-8429
▁pron	-8430
▁pump	-8431
▁rice	-8432
▁sale	-8433
▁stun	-8434
▁sums	-8435
▁vide	-8436
astics	-8437
▁ambig	-8438
▁cliff	-8439
▁clout	-8440
▁guant	-8441
▁hikes	-8442
▁pride	-8443
▁radio	-8444
▁robot	-8445
▁teams	-8446
▁utter	-8447
▁abrupt	-8448
▁filled	-8449
▁league	-8450
▁phrase	-8451
▁polish	-8452
▁preval	-8453
▁ronald	-8454
▁rousse	-8455
▁shinzo	-8456
▁stalem	-8457
▁starts	-8458
▁winner	-8459
lessness	-8460
specific	-8461
▁boosted	-8462
▁charged	-8463
▁emulate	-8464
▁entails	-8465
▁favored	-8466
▁hostile	-8467
▁install	-8468
▁intoler	-8469
▁krugman	-8470
▁postwar	-8471
▁premium	-8472
▁recruit	-8473
▁sanders	-8474
▁silence	-8475
▁alarming	-8476
▁averaged	-8477
▁cautious	-8478
▁defining	-8479
▁eventual	-8480
▁flooding	-8481
▁freedoms	-8482
▁inaction	-8483
▁mainland	-8484
▁declaring	-8485
▁exclusion	-8486
▁extremist	-8487
▁indicated	-8488
▁intensify	-8489
▁reference	-8490
▁sacrifice	-8491
▁blockchain	-8492
▁constantly	-8493
▁escalating	-8494
▁narratives	-8495
▁newspapers	-8496
▁resentment	-8497
▁consolidate	-8498
▁derivatives	-8499
▁inspiration	-8500
▁negotiators	-8501
▁unnecessary	-8502
▁demonstrates	-8503
▁jurisdiction	-8504
▁nationalists	-8505
▁telecommunic	-8506
▁breakthroughs	-8507
▁deforestation	-8508
cla	-8509
lie	-8510
oot	-8511
zen	-8512
▁35	-8513
▁80	-8514
▁ay	-8515
▁cp	-8516
▁ko	-8517
amin	-8518
aust	-8519
hard	-8520
icit	-8521
ople	-8522
prom	-8523
wage	-8524
▁ali	-8525
▁bot	-8526
▁ccp	-8527
▁mud	-8528
▁rot	-8529
essed	-8530
hibit	-8531
otten	-8532
overs	-8533
roads	-8534
▁bret	-8535
▁cere	-8536
▁edit	-8537
▁fant	-8538
▁fier	-8539
▁olig	-8540
▁plag	-8541
cially	-8542
ighted	-8543
people	-8544
▁2002,	-8545
▁accus	-8546
▁dozen	-8547
▁drone	-8548
▁genes	-8549
▁inhab	-8550
▁loose	-8551
▁peril	-8552
▁ports	-8553
▁remov	-8554
▁sachs	-8555
▁spark	-8556
▁stems	-8557
igenous	-8558
induced	-8559
rategic	-8560
▁ballot	-8561
▁inputs	-8562
▁oversh	-8563
▁switch	-8564
▁unanim	-8565
▁charles	-8566
▁cholera	-8567
▁located	-8568
▁margins	-8569
▁methane	-8570
▁minimal	-8571
▁miracle	-8572
▁nicolas	-8573
▁obesity	-8574
▁pillars	-8575
▁trapped	-8576
▁undersc	-8577
▁virtual	-8578
▁dictator	-8579
▁infected	-8580
▁mathemat	-8581
▁postpone	-8582
▁prompted	-8583
▁restored	-8584
▁skeptics	-8585
▁thousand	-8586
▁allocated	-8587
▁completed	-8588
▁dedicated	-8589
▁disregard	-8590
▁intensity	-8591
▁livestock	-8592
▁offensive	-8593
▁pakistani	-8594
▁perfectly	-8595
▁pervasive	-8596
▁portfolio	-8597
▁realizing	-8598
▁tolerance	-8599
▁unpopular	-8600
▁voluntary	-8601
▁attributed	-8602
▁deployment	-8603
▁globalized	-8604
▁indigenous	-8605
▁overcoming	-8606
▁protesters	-8607
▁compromises	-8608
▁connections	-8609
▁expectation	-8610
▁intensified	-8611
▁philanthrop	-8612
▁spectacular	-8613
▁underground	-8614
▁entrepreneur	-8615
▁subsidiaries	-8616
▁demonstrations	-8617
11	-8618
hed	-8619
ixt	-8620
kak	-8621
umn	-8622
vol	-8623
▁(“	-8624
▁26	-8625
▁8.	-8626
▁ax	-8627
▁ba	-8628
▁om	-8629
aise	-8630
conf	-8631
icks	-8632
ider	-8633
requ	-8634
▁-0.	-8635
▁150	-8636
▁30-	-8637
▁jan	-8638
▁tit	-8639
▁vit	-8640
▁wre	-8641
dling	-8642
iates	-8643
itage	-8644
trans	-8645
ville	-8646
▁anch	-8647
▁batt	-8648
▁belg	-8649
▁fran	-8650
▁merc	-8651
▁shot	-8652
▁subs	-8653
▁thom	-8654
▁yanu	-8655
claude	-8656
kovych	-8657
needed	-8658
▁brave	-8659
▁intra	-8660
▁ought	-8661
▁overn	-8662
▁petro	-8663
▁refin	-8664
▁slump	-8665
▁spons	-8666
▁woods	-8667
consist	-8668
seekers	-8669
▁aggrav	-8670
▁balkan	-8671
▁benign	-8672
▁bosnia	-8673
▁checks	-8674
▁curric	-8675
▁errors	-8676
▁evolve	-8677
▁fought	-8678
▁fronts	-8679
▁induce	-8680
▁portra	-8681
▁soccer	-8682
▁spends	-8683
▁stalin	-8684
▁viktor	-8685
▁yellen	-8686
▁bargain	-8687
▁beliefs	-8688
▁caution	-8689
▁denying	-8690
▁minutes	-8691
▁outrage	-8692
▁prudent	-8693
▁storage	-8694
▁verdict	-8695
enhancing	-8696
insurance	-8697
resistant	-8698
▁bailouts	-8699
▁clinical	-8700
▁customer	-8701
▁emmanuel	-8702
▁episodes	-8703
▁heritage	-8704
▁stagnant	-8705
▁stressed	-8706
▁depressed	-8707
▁dismissed	-8708
▁eurobonds	-8709
▁euroskept	-8710
▁fostering	-8711
▁indicator	-8712
▁maintains	-8713
▁overnight	-8714
▁skeptical	-8715
▁suspicion	-8716
▁workplace	-8717
▁worsening	-8718
▁capability	-8719
▁coordinate	-8720
▁frustrated	-8721
▁yanukovych	-8722
▁bondholders	-8723
▁complacency	-8724
▁determining	-8725
▁negotiation	-8726
▁permanently	-8727
▁surrounding	-8728
▁unilaterally	-8729
▁unpredictable	-8730
▁industrialized	-8731
▁interpretation	-8732
▁underestimated	-8733
▁environmentally	-8734
gl	-8735
bra	-8736
far	-8737
gra	-8738
isa	-8739
law	-8740
rim	-8741
vak	-8742
▁--	-8743
abet	-8744
bean	-8745
hang	-8746
iago	-8747
iasm	-8748
inge	-8749
life	-8750
uled	-8751
▁11%	-8752
▁cyn	-8753
▁dry	-8754
frank	-8755
osion	-8756
weigh	-8757
▁1950	-8758
▁alib	-8759
▁cham	-8760
▁dodd	-8761
▁feat	-8762
▁mega	-8763
▁mont	-8764
▁pipe	-8765
consum	-8766
insula	-8767
states	-8768
uating	-8769
usalem	-8770
▁appet	-8771
▁boliv	-8772
▁conqu	-8773
▁costa	-8774
▁drain	-8775
▁irony	-8776
▁lanka	-8777
▁roots	-8778
▁upper	-8779
▁wield	-8780
iencies	-8781
instein	-8782
private	-8783
▁acquis	-8784
▁afflic	-8785
▁amazon	-8786
▁analog	-8787
▁analyt	-8788
▁cultiv	-8789
▁feared	-8790
▁gotten	-8791
▁joseph	-8792
▁moldov	-8793
▁overly	-8794
▁patent	-8795
▁pillar	-8796
▁propel	-8797
▁thomas	-8798
▁vacuum	-8799
▁vastly	-8800
▁winter	-8801
▁bretton	-8802
▁contact	-8803
▁conting	-8804
▁dissent	-8805
▁erosion	-8806
▁expects	-8807
▁inspire	-8808
▁lifting	-8809
▁logical	-8810
▁malaise	-8811
▁monopol	-8812
▁satisfy	-8813
▁succumb	-8814
▁unequal	-8815
▁unsurpr	-8816
▁advisers	-8817
▁defeated	-8818
▁disposal	-8819
▁entitled	-8820
▁friedman	-8821
▁instinct	-8822
▁irrevers	-8823
▁officers	-8824
▁opposing	-8825
▁santiago	-8826
▁governors	-8827
▁insolvent	-8828
▁peninsula	-8829
▁radically	-8830
▁routinely	-8831
▁stalemate	-8832
▁enthusiasm	-8833
▁grievances	-8834
▁hurricanes	-8835
▁identities	-8836
▁indication	-8837
▁journalism	-8838
▁originally	-8839
▁supplement	-8840
▁disparities	-8841
▁interaction	-8842
▁recommended	-8843
▁replacement	-8844
▁residential	-8845
▁indefinitely	-8846
▁strategically	-8847
▁representation	-8848
but	-8849
sky	-8850
van	-8851
case	-8852
hist	-8853
icop	-8854
ogen	-8855
will	-8856
▁fab	-8857
▁fom	-8858
▁fro	-8859
▁peg	-8860
▁pin	-8861
▁tex	-8862
▁tpp	-8863
▁xin	-8864
-2008	-8865
field	-8866
inent	-8867
▁clar	-8868
▁cosm	-8869
▁ngos	-8870
▁prox	-8871
▁sick	-8872
▁smok	-8873
israel	-8874
school	-8875
usions	-8876
▁1,000	-8877
▁blunt	-8878
▁craft	-8879
▁farms	-8880
▁keeps	-8881
▁names	-8882
▁niger	-8883
▁rigor	-8884
▁vague	-8885
ariably	-8886
ortions	-8887
▁electr	-8888
▁eroded	-8889
▁excuse	-8890
▁franco	-8891
▁grants	-8892
▁handle	-8893
▁hypoth	-8894
▁inward	-8895
▁locked	-8896
▁sounds	-8897
▁charism	-8898
▁clients	-8899
▁coupled	-8900
▁despair	-8901
▁divorce	-8902
▁endorse	-8903
▁holders	-8904
▁knowing	-8905
▁kurdish	-8906
▁michael	-8907
▁priorit	-8908
▁reveals	-8909
▁stalled	-8910
istically	-8911
▁affluent	-8912
▁applying	-8913
▁franklin	-8914
▁imminent	-8915
▁maneuver	-8916
▁outweigh	-8917
▁receives	-8918
▁spectrum	-8919
▁assertive	-8920
▁assessing	-8921
▁breakdown	-8922
▁egyptians	-8923
▁graduates	-8924
▁hurricane	-8925
▁inconsist	-8926
▁jerusalem	-8927
▁proposing	-8928
▁reasoning	-8929
▁regulated	-8930
▁replacing	-8931
▁sectarian	-8932
▁ambassador	-8933
▁comprising	-8934
▁infections	-8935
▁invariably	-8936
▁overlooked	-8937
▁remarkably	-8938
▁accommodate	-8939
▁exemplified	-8940
▁displacement	-8941
▁domestically	-8942
▁approximately	-8943
▁deteriorating	-8944
▁democratically	-8945
sb	-8946
ua	-8947
ahu	-8948
dep	-8949
don	-8950
fis	-8951
fty	-8952
unc	-8953
atri	-8954
emer	-8955
mare	-8956
nedy	-8957
omic	-8958
ship	-8959
▁-2.	-8960
▁dal	-8961
▁flu	-8962
▁gal	-8963
▁orb	-8964
▁pes	-8965
▁sab	-8966
▁yas	-8967
cores	-8968
vedev	-8969
▁2030	-8970
▁alex	-8971
▁auto	-8972
▁aver	-8973
▁budd	-8974
▁cauc	-8975
▁diff	-8976
▁dual	-8977
▁empt	-8978
▁grip	-8979
▁hate	-8980
▁item	-8981
▁mant	-8982
▁mini	-8983
▁topp	-8984
▁unav	-8985
▁wwii	-8986
funded	-8987
iverse	-8988
palest	-8989
ussein	-8990
▁allev	-8991
▁award	-8992
▁backd	-8993
▁brown	-8994
▁dirty	-8995
▁enshr	-8996
▁fires	-8997
▁habit	-8998
▁inaug	-8999
▁lifet	-9000
▁prone	-9001
▁sadly	-9002
acities	-9003
defined	-9004
▁arrive	-9005
▁assass	-9006
▁fixing	-9007
▁insure	-9008
▁massac	-9009
▁persec	-9010
▁regret	-9011
▁seized	-9012
▁shrink	-9013
balanced	-9014
▁appeals	-9015
▁assured	-9016
▁broaden	-9017
▁clarity	-9018
▁engines	-9019
▁episode	-9020
▁evasion	-9021
▁exagger	-9022
▁hussein	-9023
▁journey	-9024
▁kennedy	-9025
▁koreans	-9026
▁metrics	-9027
▁ordered	-9028
▁outsize	-9029
▁rethink	-9030
▁strange	-9031
▁tempted	-9032
▁tougher	-9033
▁attacked	-9034
▁backward	-9035
▁blocking	-9036
▁confined	-9037
▁football	-9038
▁formally	-9039
▁friendly	-9040
▁integral	-9041
▁invented	-9042
▁medvedev	-9043
▁opinions	-9044
▁packages	-9045
▁referred	-9046
▁symbolic	-9047
▁tactical	-9048
▁traction	-9049
▁advocated	-9050
▁mandatory	-9051
▁nightmare	-9052
▁overthrow	-9053
▁performed	-9054
▁surprised	-9055
otechnology	-9056
▁attraction	-9057
▁decisively	-9058
▁developers	-9059
▁heightened	-9060
▁reportedly	-9061
▁respective	-9062
▁superpower	-9063
▁traditions	-9064
▁turbulence	-9065
▁conclusions	-9066
▁projections	-9067
▁revelations	-9068
▁shareholder	-9069
▁underscores	-9070
▁conversation	-9071
▁marginalized	-9072
▁subsequently	-9073
▁uncertainties	-9074
45	-9075
75	-9076
da	-9077
ki	-9078
po	-9079
800	-9080
nat	-9081
ped	-9082
roc	-9083
ule	-9084
uma	-9085
uts	-9086
▁bh	-9087
alls	-9088
asty	-9089
bear	-9090
disc	-9091
feld	-9092
namo	-9093
ores	-9094
play	-9095
tery	-9096
ulum	-9097
weap	-9098
wood	-9099
▁75%	-9100
▁daw	-9101
▁luc	-9102
▁vib	-9103
bling	-9104
ullah	-9105
value	-9106
winds	-9107
▁1989	-9108
▁alan	-9109
▁alas	-9110
▁elig	-9111
▁gord	-9112
▁hire	-9113
▁maln	-9114
▁thin	-9115
▁tian	-9116
dollar	-9117
engine	-9118
nation	-9119
public	-9120
rained	-9121
ularly	-9122
▁1960’	-9123
▁2020,	-9124
▁avert	-9125
▁conve	-9126
▁digit	-9127
▁doors	-9128
▁fines	-9129
▁fruit	-9130
▁genoc	-9131
▁likes	-9132
▁mired	-9133
▁named	-9134
▁shell	-9135
▁spike	-9136
▁spoke	-9137
levance	-9138
liberal	-9139
umbling	-9140
▁demise	-9141
▁devise	-9142
▁drives	-9143
▁habits	-9144
▁hazard	-9145
▁ratify	-9146
▁rememb	-9147
▁senkak	-9148
▁thinks	-9149
▁tribun	-9150
▁alibaba	-9151
▁bearing	-9152
▁consent	-9153
▁ensuing	-9154
▁fleeing	-9155
▁flowing	-9156
▁formula	-9157
▁ideolog	-9158
▁mindset	-9159
▁revised	-9160
▁romania	-9161
▁settled	-9162
▁spreads	-9163
▁bacteria	-9164
▁consumed	-9165
▁defenses	-9166
▁evolving	-9167
▁headline	-9168
▁presents	-9169
▁refusing	-9170
▁scarcity	-9171
▁selected	-9172
▁sweeping	-9173
▁academics	-9174
▁attacking	-9175
▁entertain	-9176
▁forgotten	-9177
▁historian	-9178
▁injustice	-9179
▁accessible	-9180
▁anticipate	-9181
▁bargaining	-9182
▁disturbing	-9183
▁encourages	-9184
▁insolvency	-9185
▁ministries	-9186
▁proclaimed	-9187
▁skepticism	-9188
▁suspicious	-9189
▁businessmen	-9190
▁contributes	-9191
▁discredited	-9192
▁incremental	-9193
▁probability	-9194
▁theoretical	-9195
▁longstanding	-9196
-3	-9197
lan	-9198
sol	-9199
tic	-9200
abao	-9201
cile	-9202
dled	-9203
erno	-9204
iast	-9205
lers	-9206
lose	-9207
resa	-9208
riad	-9209
stop	-9210
▁dyn	-9211
▁fdi	-9212
▁fuk	-9213
▁lit	-9214
▁lou	-9215
▁nas	-9216
after	-9217
borne	-9218
icket	-9219
ierra	-9220
rific	-9221
▁adam	-9222
▁aged	-9223
▁ceos	-9224
▁copy	-9225
▁cush	-9226
▁gore	-9227
▁issu	-9228
▁loud	-9229
▁outs	-9230
▁silv	-9231
anyahu	-9232
comers	-9233
compet	-9234
normal	-9235
supply	-9236
uously	-9237
wealth	-9238
▁2005.	-9239
▁armen	-9240
▁array	-9241
▁bases	-9242
▁boast	-9243
▁broke	-9244
▁fract	-9245
▁guess	-9246
▁haiti	-9247
▁reaff	-9248
▁socio	-9249
▁veget	-9250
athered	-9251
elected	-9252
etermin	-9253
service	-9254
▁10,000	-9255
▁debtor	-9256
▁doctor	-9257
▁genome	-9258
▁harass	-9259
▁hoping	-9260
▁jiabao	-9261
▁lacked	-9262
▁myriad	-9263
▁scores	-9264
▁sierra	-9265
▁strain	-9266
▁warren	-9267
▁agendas	-9268
▁biofuel	-9269
▁handful	-9270
▁illicit	-9271
▁liberia	-9272
▁partial	-9273
▁portion	-9274
▁qaddafi	-9275
▁removal	-9276
▁sympath	-9277
▁theresa	-9278
▁zealand	-9279
fficiency	-9280
▁aircraft	-9281
▁backdrop	-9282
▁contains	-9283
▁contempl	-9284
▁einstein	-9285
▁excesses	-9286
▁imagined	-9287
▁iranians	-9288
▁mistrust	-9289
▁partisan	-9290
▁ratified	-9291
▁revision	-9292
▁strictly	-9293
▁universe	-9294
▁allegedly	-9295
▁arbitrary	-9296
▁balancing	-9297
▁certainty	-9298
▁confronts	-9299
▁describes	-9300
▁discourse	-9301
▁exhausted	-9302
▁fragility	-9303
▁hostility	-9304
▁netanyahu	-9305
▁recipient	-9306
▁reconcile	-9307
▁restraint	-9308
▁autonomous	-9309
▁destroying	-9310
▁discourage	-9311
▁emphasizes	-9312
▁psychology	-9313
▁unintended	-9314
▁composition	-9315
▁elimination	-9316
▁emphasizing	-9317
▁identifying	-9318
▁prohibition	-9319
▁publication	-9320
▁respondents	-9321
▁explanations	-9322
▁irreversible	-9323
▁decentralized	-9324
▁demonstrating	-9325
▁exceptionally	-9326
▁justification	-9327
▁disinformation	-9328
▁interdependence	-9329
12	-9330
np	-9331
ny	-9332
bin	-9333
byn	-9334
dis	-9335
hel	-9336
her	-9337
ila	-9338
lor	-9339
pts	-9340
too	-9341
▁9.	-9342
▁ly	-9343
clos	-9344
erto	-9345
holm	-9346
nard	-9347
ourg	-9348
ulle	-9349
umes	-9350
umin	-9351
▁12%	-9352
▁abu	-9353
▁bin	-9354
abled	-9355
aksin	-9356
armed	-9357
arted	-9358
jiang	-9359
phone	-9360
there	-9361
vakia	-9362
▁1998	-9363
▁alco	-9364
▁coff	-9365
▁dams	-9366
▁gest	-9367
▁pund	-9368
▁puzz	-9369
▁reun	-9370
▁song	-9371
▁wond	-9372
errill	-9373
idable	-9374
soviet	-9375
▁alban	-9376
▁civic	-9377
▁coerc	-9378
▁cripp	-9379
▁embod	-9380
▁feels	-9381
▁hypoc	-9382
▁incap	-9383
▁intim	-9384
▁seoul	-9385
▁swing	-9386
erences	-9387
keeping	-9388
onymous	-9389
ulators	-9390
▁attain	-9391
▁bipart	-9392
▁bitter	-9393
▁culmin	-9394
▁exempt	-9395
▁gaulle	-9396
▁michel	-9397
▁oldest	-9398
▁plunge	-9399
▁poison	-9400
▁romney	-9401
▁strang	-9402
▁traded	-9403
▁wouldn	-9404
▁yellow	-9405
resolved	-9406
▁academy	-9407
▁arsenal	-9408
▁barrier	-9409
▁cancers	-9410
▁indians	-9411
▁interim	-9412
▁maynard	-9413
▁mothers	-9414
▁propose	-9415
▁senkaku	-9416
▁sitting	-9417
▁studied	-9418
▁vibrant	-9419
immigrant	-9420
izational	-9421
▁abundant	-9422
▁allocate	-9423
▁appetite	-9424
▁covering	-9425
▁favorite	-9426
▁feedback	-9427
▁feelings	-9428
▁floating	-9429
▁linkages	-9430
▁persists	-9431
▁preoccup	-9432
▁printing	-9433
▁respects	-9434
▁scandals	-9435
▁signaled	-9436
▁tangible	-9437
▁tolerate	-9438
▁violated	-9439
▁believing	-9440
▁broadband	-9441
▁champions	-9442
▁considers	-9443
▁footprint	-9444
▁inherited	-9445
▁qualified	-9446
▁scientist	-9447
▁stockholm	-9448
▁suspected	-9449
▁witnessed	-9450
▁australian	-9451
▁autocratic	-9452
▁compliance	-9453
▁diagnostic	-9454
▁divergence	-9455
▁exceptions	-9456
▁formidable	-9457
▁remembered	-9458
▁restricted	-9459
▁substitute	-9460
▁succession	-9461
▁concessions	-9462
▁constitutes	-9463
▁forecasting	-9464
▁humiliation	-9465
▁proposition	-9466
▁restricting	-9467
▁trafficking	-9468
▁disagreement	-9469
▁inequalities	-9470
▁participating	-9471
▁profitability	-9472
▁democratization	-9473
ba	-9474
wa	-9475
2.5	-9476
amb	-9477
ikh	-9478
nan	-9479
rag	-9480
sur	-9481
you	-9482
▁et	-9483
▁ib	-9484
▁mc	-9485
asse	-9486
atah	-9487
blow	-9488
esis	-9489
grid	-9490
▁-3.	-9491
▁hus	-9492
▁ram	-9493
▁tig	-9494
auses	-9495
board	-9496
group	-9497
ivial	-9498
richt	-9499
▁ampl	-9500
▁band	-9501
▁bets	-9502
▁bric	-9503
▁bulg	-9504
▁cels	-9505
▁chen	-9506
▁echo	-9507
▁nurs	-9508
▁plot	-9509
▁ride	-9510
▁shed	-9511
▁shel	-9512
▁stig	-9513
▁twin	-9514
▁unra	-9515
alling	-9516
arrass	-9517
commer	-9518
▁1997,	-9519
▁abbas	-9520
▁beaut	-9521
▁cairo	-9522
▁crush	-9523
▁exped	-9524
▁fatah	-9525
▁leone	-9526
▁maast	-9527
▁milan	-9528
▁prote	-9529
▁spear	-9530
ologist	-9531
ultural	-9532
▁athens	-9533
▁fierce	-9534
▁fright	-9535
▁guided	-9536
▁hiring	-9537
▁hybrid	-9538
▁indict	-9539
▁martin	-9540
▁render	-9541
▁squand	-9542
▁string	-9543
▁unreal	-9544
▁worsen	-9545
▁betting	-9546
▁celsius	-9547
▁cleaner	-9548
▁depress	-9549
▁elusive	-9550
▁futures	-9551
▁hardest	-9552
▁outlets	-9553
▁passion	-9554
▁physics	-9555
▁prostit	-9556
▁reprodu	-9557
▁talents	-9558
▁traffic	-9559
▁unusual	-9560
reduction	-9561
▁austrian	-9562
▁deserves	-9563
▁exporter	-9564
▁obtained	-9565
▁outdated	-9566
▁overhang	-9567
▁plastics	-9568
▁pointing	-9569
▁prevents	-9570
▁prolifer	-9571
▁reformed	-9572
▁renegoti	-9573
▁segments	-9574
▁sentence	-9575
▁standoff	-9576
▁symptoms	-9577
▁explosion	-9578
▁formation	-9579
▁impending	-9580
▁launching	-9581
▁marketing	-9582
▁socialism	-9583
▁struggled	-9584
▁withdrawn	-9585
▁withstand	-9586
▁advocating	-9587
▁bipartisan	-9588
▁compounded	-9589
▁conviction	-9590
▁disorderly	-9591
▁liberalism	-9592
▁maastricht	-9593
▁militarily	-9594
▁mitigation	-9595
▁privileged	-9596
▁profoundly	-9597
▁conferences	-9598
▁distinction	-9599
▁perceptions	-9600
▁technocrats	-9601
▁calculations	-9602
▁exploitation	-9603
▁manufactured	-9604
▁consequential	-9605
cr	-9606
my	-9607
”?	-9608
bes	-9609
bus	-9610
iam	-9611
san	-9612
aine	-9613
away	-9614
chet	-9615
inav	-9616
onic	-9617
ords	-9618
rann	-9619
▁16%	-9620
▁45%	-9621
▁ict	-9622
▁mos	-9623
▁pit	-9624
▁stu	-9625
▁zed	-9626
athan	-9627
blown	-9628
eding	-9629
isite	-9630
oline	-9631
vable	-9632
▁100%	-9633
▁elev	-9634
▁hang	-9635
▁hens	-9636
▁obsc	-9637
▁tant	-9638
▁warn	-9639
ibbean	-9640
licate	-9641
rising	-9642
risome	-9643
social	-9644
▁2007.	-9645
▁bleak	-9646
▁borne	-9647
▁crude	-9648
▁cruel	-9649
▁defer	-9650
▁drops	-9651
▁emper	-9652
▁empty	-9653
▁erode	-9654
▁ghost	-9655
▁grass	-9656
▁greed	-9657
▁henry	-9658
▁occas	-9659
▁recyc	-9660
▁rests	-9661
▁smith	-9662
▁stick	-9663
ensible	-9664
▁attach	-9665
▁corbyn	-9666
▁entity	-9667
▁gordon	-9668
▁hearts	-9669
▁listed	-9670
▁luxury	-9671
▁native	-9672
▁potent	-9673
▁provoc	-9674
▁santos	-9675
▁stages	-9676
▁tribal	-9677
▁wasted	-9678
thinking	-9679
▁britons	-9680
▁credits	-9681
▁emerges	-9682
▁extract	-9683
▁helicop	-9684
▁lagging	-9685
▁moldova	-9686
▁optimal	-9687
▁plagued	-9688
▁swedish	-9689
▁tibetan	-9690
▁unravel	-9691
▁attended	-9692
▁canadian	-9693
▁emission	-9694
▁emotions	-9695
▁enforced	-9696
▁exceeded	-9697
▁gasoline	-9698
▁guerrill	-9699
▁literacy	-9700
▁occupied	-9701
▁operates	-9702
▁pipeline	-9703
▁preceded	-9704
▁speeches	-9705
▁stanford	-9706
▁stations	-9707
▁stunning	-9708
especially	-9709
▁autocrats	-9710
▁automated	-9711
▁ballistic	-9712
▁broadcast	-9713
▁caribbean	-9714
▁catalonia	-9715
▁deploying	-9716
▁embarrass	-9717
▁extension	-9718
▁frequency	-9719
▁headwinds	-9720
▁penalties	-9721
▁privately	-9722
▁reformers	-9723
▁scandinav	-9724
▁trillions	-9725
▁worrisome	-9726
▁accumulate	-9727
▁capitalize	-9728
▁containing	-9729
▁explaining	-9730
▁groundwork	-9731
▁indicating	-9732
▁influenced	-9733
▁innovators	-9734
▁philosophy	-9735
▁predicting	-9736
▁reflection	-9737
▁coefficient	-9738
▁concentrate	-9739
▁correlation	-9740
▁forthcoming	-9741
▁macroeconom	-9742
▁philosopher	-9743
▁prosecutors	-9744
▁stimulating	-9745
▁interactions	-9746
▁prescription	-9747
▁clearinghouse	-9748
▁collaborative	-9749
▁experimentation	-9750
bl	-9751
ano	-9752
byl	-9753
hem	-9754
oup	-9755
xon	-9756
▁90	-9757
▁ol	-9758
▁ri	-9759
chin	-9760
enko	-9761
furt	-9762
inea	-9763
iors	-9764
olly	-9765
▁bog	-9766
▁cia	-9767
▁dna	-9768
▁ecu	-9769
▁jac	-9770
▁kyi	-9771
▁suu	-9772
anted	-9773
engen	-9774
islam	-9775
owing	-9776
rafat	-9777
veled	-9778
▁biom	-9779
▁cert	-9780
▁dust	-9781
▁intu	-9782
▁lula	-9783
▁nord	-9784
▁ring	-9785
▁stew	-9786
▁thai	-9787
▁woes	-9788
ensity	-9789
headed	-9790
ieties	-9791
repres	-9792
target	-9793
▁1989,	-9794
▁1990,	-9795
▁2001.	-9796
▁dubai	-9797
▁fever	-9798
▁foods	-9799
▁frict	-9800
▁globe	-9801
▁movie	-9802
▁opium	-9803
▁overe	-9804
▁preca	-9805
▁scott	-9806
▁sport	-9807
america	-9808
changed	-9809
ernobyl	-9810
▁affirm	-9811
▁anyway	-9812
▁arafat	-9813
▁expose	-9814
▁gamble	-9815
▁incurs	-9816
▁influx	-9817
▁laying	-9818
▁lesser	-9819
▁lethal	-9820
▁mining	-9821
▁misman	-9822
▁plight	-9823
▁pollut	-9824
▁prejud	-9825
▁quotas	-9826
▁recipe	-9827
▁remind	-9828
▁safely	-9829
▁sensit	-9830
▁spoken	-9831
▁termin	-9832
▁triple	-9833
▁tyrann	-9834
▁alcohol	-9835
▁belgium	-9836
▁bipolar	-9837
▁cocaine	-9838
▁compass	-9839
▁counsel	-9840
▁discern	-9841
▁educate	-9842
▁examine	-9843
▁explore	-9844
▁helpful	-9845
▁intimid	-9846
▁invited	-9847
▁letting	-9848
▁monthly	-9849
▁procure	-9850
▁pundits	-9851
▁rampant	-9852
▁realism	-9853
▁shorter	-9854
▁surging	-9855
▁thaksin	-9856
▁tighten	-9857
▁totally	-9858
▁transit	-9859
▁trivial	-9860
▁watched	-9861
dependent	-9862
▁activist	-9863
▁commerce	-9864
▁discount	-9865
▁incompet	-9866
▁liberals	-9867
▁lifetime	-9868
▁memories	-9869
▁navigate	-9870
▁prevails	-9871
▁schengen	-9872
▁suppress	-9873
▁budgetary	-9874
▁celebrate	-9875
▁channeled	-9876
▁empowered	-9877
▁exceeding	-9878
▁forefront	-9879
▁insisting	-9880
▁newcomers	-9881
▁operators	-9882
▁orthodoxy	-9883
▁outsiders	-9884
▁permitted	-9885
▁reversing	-9886
▁schooling	-9887
▁somewhere	-9888
▁struggles	-9889
▁committing	-9890
▁continuous	-9891
▁disclosure	-9892
▁disconnect	-9893
▁disposable	-9894
▁fertilizer	-9895
▁inherently	-9896
▁insurgency	-9897
▁journalist	-9898
▁manageable	-9899
▁prediction	-9900
▁unresolved	-9901
▁enlightened	-9902
▁transitions	-9903
▁undertaking	-9904
▁accomplished	-9905
▁perspectives	-9906
▁beneficiaries	-9907
▁intellectuals	-9908
▁predominantly	-9909
▁redistribution	-9910
-8	-9911
.,	-9912
ih	-9913
oe	-9914
pb	-9915
400	-9916
ads	-9917
aur	-9918
ede	-9919
erg	-9920
fta	-9921
irs	-9922
pre	-9923
tip	-9924
vin	-9925
▁65	-9926
▁9%	-9927
▁ki	-9928
▁ku	-9929
arat	-9930
chem	-9931
comp	-9932
gone	-9933
moon	-9934
rock	-9935
ston	-9936
tion	-9937
▁2.5	-9938
▁awa	-9939
▁eea	-9940
▁ker	-9941
▁mic	-9942
▁rou	-9943
anium	-9944
earth	-9945
gical	-9946
iably	-9947
inery	-9948
isive	-9949
otine	-9950
▁chap	-9951
▁doha	-9952
▁fled	-9953
▁gang	-9954
▁gavi	-9955
▁gift	-9956
▁jong	-9957
▁kash	-9958
▁laud	-9959
▁ling	-9960
▁mild	-9961
▁navy	-9962
▁nerv	-9963
▁outp	-9964
▁pope	-9965
▁rapp	-9966
▁rica	-9967
▁ruth	-9968
▁ttip	-9969
▁vind	-9970
▁webs	-9971
esbank	-9972
fiscal	-9973
inians	-9974
seless	-9975
terror	-9976
▁2006.	-9977
▁bless	-9978
▁bombs	-9979
▁booms	-9980
▁chart	-9981
▁deple	-9982
▁effic	-9983
▁exxon	-9984
▁holoc	-9985
▁infer	-9986
▁knock	-9987
▁smugg	-9988
▁subdu	-9989
▁swaps	-9990
▁unite	-9991
▁units	-9992
cession	-9993
chinese	-9994
finance	-9995
irected	-9996
looking	-9997
tenance	-9998
▁ancest	-9999
▁buyers	-10000
▁cement	-10001
▁conced	-10002
▁contam	-10003
▁fabric	-10004
▁favors	-10005
▁firing	-10006
▁guinea	-10007
▁ideals	-10008
▁insult	-10009
▁lasted	-10010
▁manuel	-10011
▁miscon	-10012
▁panels	-10013
▁ranked	-10014
▁rebels	-10015
▁thrown	-10016
▁wholes	-10017
financed	-10018
icrobial	-10019
semitism	-10020
▁antagon	-10021
▁arrival	-10022
▁contend	-10023
▁ecuador	-10024
▁ensures	-10025
▁fallout	-10026
▁footing	-10027
▁goldman	-10028
▁guiding	-10029
▁hearing	-10030
▁inhabit	-10031
▁judging	-10032
▁manager	-10033
▁militar	-10034
▁pockets	-10035
▁renewal	-10036
▁rewards	-10037
▁roadmap	-10038
▁snowden	-10039
▁staying	-10040
▁suppose	-10041
▁uranium	-10042
rudential	-10043
▁activism	-10044
▁centrist	-10045
▁deciding	-10046
▁decrease	-10047
▁doubling	-10048
▁evaluate	-10049
▁incident	-10050
▁medicare	-10051
▁missions	-10052
▁reviving	-10053
▁shocking	-10054
▁spurring	-10055
▁teaching	-10056
▁thriving	-10057
▁upheaval	-10058
▁2008-2009	-10059
▁capturing	-10060
▁distorted	-10061
▁documents	-10062
▁fisheries	-10063
▁frankfurt	-10064
▁ignorance	-10065
▁languages	-10066
▁machinery	-10067
▁microsoft	-10068
▁pessimism	-10069
▁rationale	-10070
▁unchanged	-10071
▁upholding	-10072
▁watershed	-10073
▁absolutely	-10074
▁capacities	-10075
▁deliberate	-10076
▁depreciate	-10077
▁enthusiast	-10078
▁insistence	-10079
▁manipulate	-10080
▁positioned	-10081
▁reconsider	-10082
▁reinforces	-10083
▁repressive	-10084
▁sentiments	-10085
▁accusations	-10086
▁controversy	-10087
▁destination	-10088
▁disappeared	-10089
▁empowerment	-10090
▁eradication	-10091
▁imagination	-10092
▁implication	-10093
▁integrating	-10094
▁legislators	-10095
▁materialize	-10096
▁procurement	-10097
▁understands	-10098
▁vaccination	-10099
▁underpinning	-10100
▁complementary	-10101
▁multilateralism	-10102
16	-10103
35	-10104
bs	-10105
amm	-10106
dad	-10107
fit	-10108
oil	-10109
ora	-10110
rev	-10111
rue	-10112
asus	-10113
eded	-10114
enei	-10115
igil	-10116
keep	-10117
omer	-10118
scar	-10119
seen	-10120
sett	-10121
uble	-10122
▁akp	-10123
▁aro	-10124
▁bri	-10125
▁cig	-10126
▁lin	-10127
▁oxy	-10128
▁ske	-10129
acies	-10130
asure	-10131
atell	-10132
icked	-10133
itant	-10134
organ	-10135
peace	-10136
stone	-10137
yield	-10138
▁1.5%	-10139
▁akin	-10140
▁dedu	-10141
▁junt	-10142
▁kham	-10143
▁lest	-10144
▁mali	-10145
▁urge	-10146
▁vari	-10147
▁visa	-10148
enable	-10149
ercuss	-10150
export	-10151
▁2,000	-10152
▁accur	-10153
▁antim	-10154
▁guang	-10155
▁magic	-10156
▁peers	-10157
▁proof	-10158
▁reign	-10159
▁rever	-10160
▁score	-10161
▁stern	-10162
▁tanks	-10163
▁tries	-10164
enomics	-10165
▁burned	-10166
▁confed	-10167
▁consec	-10168
▁devote	-10169
▁disill	-10170
▁nomine	-10171
▁orders	-10172
▁outset	-10173
▁papers	-10174
▁rebell	-10175
▁sevent	-10176
▁stores	-10177
▁storms	-10178
▁upside	-10179
▁wishes	-10180
▁bolivia	-10181
▁careers	-10182
▁clearer	-10183
▁emperor	-10184
▁essence	-10185
▁maximum	-10186
▁mohamed	-10187
▁morning	-10188
▁motives	-10189
▁nervous	-10190
▁oversee	-10191
▁persons	-10192
▁refrain	-10193
▁revived	-10194
▁rivalry	-10195
▁separat	-10196
▁specter	-10197
▁stepped	-10198
▁trusted	-10199
▁wilders	-10200
regulated	-10201
▁adapting	-10202
▁biofuels	-10203
▁daughter	-10204
▁gathered	-10205
▁genocide	-10206
▁initiate	-10207
▁khamenei	-10208
▁maternal	-10209
▁mistaken	-10210
▁misunder	-10211
▁narrowly	-10212
▁olympics	-10213
▁perceive	-10214
▁rousseff	-10215
▁wherever	-10216
▁amounting	-10217
▁analytics	-10218
▁chernobyl	-10219
▁christmas	-10220
▁collected	-10221
▁confusion	-10222
▁crucially	-10223
▁epidemics	-10224
▁excellent	-10225
▁geography	-10226
▁immigrant	-10227
▁mentioned	-10228
▁radiation	-10229
▁repercuss	-10230
▁suspended	-10231
▁tightened	-10232
engineering	-10233
▁accurately	-10234
▁calculated	-10235
▁coalitions	-10236
▁dependency	-10237
▁proponents	-10238
▁registered	-10239
▁safeguards	-10240
▁shortfalls	-10241
▁systematic	-10242
▁ukrainians	-10243
▁witnessing	-10244
▁disillusion	-10245
▁limitations	-10246
▁maintenance	-10247
▁occupations	-10248
▁disadvantage	-10249
▁transitional	-10250
▁acknowledging	-10251
▁organizational	-10252
▁understandably	-10253
▁entrepreneurial	-10254
yn	-10255
zs	-10256
600	-10257
afe	-10258
ala	-10259
asi	-10260
omy	-10261
oon	-10262
oty	-10263
pol	-10264
yip	-10265
zai	-10266
dles	-10267
esco	-10268
eted	-10269
hous	-10270
ilty	-10271
last	-10272
mail	-10273
rand	-10274
▁1.3	-10275
▁17%	-10276
▁aqu	-10277
▁ele	-10278
▁fox	-10279
▁nap	-10280
▁oda	-10281
▁odd	-10282
▁ubi	-10283
▁upd	-10284
afric	-10285
cular	-10286
itous	-10287
▁0.5%	-10288
▁2050	-10289
▁apes	-10290
▁bhut	-10291
▁dose	-10292
▁fomc	-10293
▁hall	-10294
▁mahm	-10295
▁mush	-10296
▁obso	-10297
▁pest	-10298
▁phot	-10299
▁tear	-10300
fueled	-10301
lywood	-10302
member	-10303
person	-10304
▁2000.	-10305
▁2050.	-10306
▁culpr	-10307
▁femin	-10308
▁floor	-10309
▁junta	-10310
▁liber	-10311
▁lobby	-10312
▁lofty	-10313
▁merch	-10314
▁metap	-10315
▁motor	-10316
▁poles	-10317
▁recep	-10318
▁reinv	-10319
▁reson	-10320
▁scene	-10321
▁slack	-10322
▁swept	-10323
▁tumor	-10324
▁vigil	-10325
limited	-10326
profile	-10327
weapons	-10328
▁absurd	-10329
▁baltic	-10330
▁beings	-10331
▁bullet	-10332
▁calder	-10333
▁clinic	-10334
▁doomed	-10335
▁dreams	-10336
▁golden	-10337
▁player	-10338
▁proves	-10339
▁revolt	-10340
▁satell	-10341
▁shield	-10342
▁sports	-10343
▁suited	-10344
▁surrog	-10345
▁swings	-10346
▁tayyip	-10347
▁tenure	-10348
▁theirs	-10349
▁unhapp	-10350
commerce	-10351
▁biology	-10352
▁counted	-10353
▁courses	-10354
▁curbing	-10355
▁cushion	-10356
▁forming	-10357
▁fortune	-10358
▁iceland	-10359
▁ignores	-10360
▁impasse	-10361
▁imposes	-10362
▁passage	-10363
▁picking	-10364
▁rebound	-10365
▁rowhani	-10366
▁subdued	-10367
▁symptom	-10368
▁tighter	-10369
▁unavoid	-10370
▁visions	-10371
ilization	-10372
thinkable	-10373
▁agreeing	-10374
▁catholic	-10375
▁caucasus	-10376
▁engineer	-10377
▁executed	-10378
▁grouping	-10379
▁illusion	-10380
▁instruct	-10381
▁marshall	-10382
▁nicotine	-10383
▁obsolete	-10384
▁oligarch	-10385
▁prescrib	-10386
▁proposes	-10387
▁visiting	-10388
▁admission	-10389
▁automatic	-10390
▁conscious	-10391
▁constrain	-10392
▁correctly	-10393
▁defensive	-10394
▁detention	-10395
▁generates	-10396
▁incapable	-10397
▁jurisdict	-10398
▁leveraged	-10399
▁outbreaks	-10400
▁resistant	-10401
▁statehood	-10402
▁surpassed	-10403
▁communists	-10404
▁convenient	-10405
▁exploiting	-10406
▁federation	-10407
▁maximizing	-10408
▁performing	-10409
▁portfolios	-10410
▁regulating	-10411
▁separation	-10412
▁adversaries	-10413
▁geopolitics	-10414
▁illustrates	-10415
▁imperatives	-10416
▁intelligent	-10417
▁persecution	-10418
▁realization	-10419
▁resignation	-10420
▁commissioner	-10421
▁coordinating	-10422
▁accommodation	-10423
▁paradoxically	-10424
▁repercussions	-10425
▁identification	-10426
fl	-10427
qe	-10428
sr	-10429
700	-10430
jan	-10431
mat	-10432
tan	-10433
tbt	-10434
uni	-10435
ache	-10436
aire	-10437
aste	-10438
idal	-10439
isen	-10440
laim	-10441
prot	-10442
risy	-10443
yles	-10444
▁1.2	-10445
▁204	-10446
▁fbi	-10447
▁fly	-10448
▁haw	-10449
▁kur	-10450
asian	-10451
ghdad	-10452
iracy	-10453
isons	-10454
major	-10455
month	-10456
oting	-10457
south	-10458
ulous	-10459
▁blog	-10460
▁cycl	-10461
▁epic	-10462
▁fath	-10463
▁gand	-10464
▁hack	-10465
▁helm	-10466
▁hier	-10467
▁hiro	-10468
▁jack	-10469
▁ncds	-10470
▁nost	-10471
▁prad	-10472
▁shen	-10473
▁ship	-10474
▁swap	-10475
50,000	-10476
acious	-10477
handed	-10478
itated	-10479
ivable	-10480
ulture	-10481
▁1991,	-10482
▁affil	-10483
▁alert	-10484
▁annan	-10485
▁antar	-10486
▁bread	-10487
▁cance	-10488
▁error	-10489
▁impet	-10490
▁kilom	-10491
▁pages	-10492
▁realm	-10493
▁scram	-10494
▁ships	-10495
▁trees	-10496
▁unrel	-10497
▁video	-10498
▁vivid	-10499
▁voter	-10500
attered	-10501
ourcing	-10502
ropical	-10503
▁atomic	-10504
▁banker	-10505
▁breaks	-10506
▁copper	-10507
▁diabet	-10508
▁duties	-10509
▁guilty	-10510
▁jumped	-10511
▁metrop	-10512
▁racism	-10513
▁remitt	-10514
▁silver	-10515
▁surren	-10516
▁visits	-10517
▁writer	-10518
▁zedong	-10519
ceptible	-10520
▁appease	-10521
▁augment	-10522
▁crossed	-10523
▁cynical	-10524
▁debated	-10525
▁demagog	-10526
▁durable	-10527
▁morally	-10528
▁nominee	-10529
▁overdue	-10530
▁pradesh	-10531
▁reaches	-10532
▁refuses	-10533
▁secured	-10534
▁seekers	-10535
▁squeeze	-10536
▁strains	-10537
▁syrians	-10538
▁tipping	-10539
▁undergo	-10540
▁viewing	-10541
political	-10542
▁abstract	-10543
▁aversion	-10544
▁district	-10545
▁examined	-10546
▁exported	-10547
▁farmland	-10548
▁fighters	-10549
▁lobbying	-10550
▁mountain	-10551
▁opponent	-10552
▁organize	-10553
▁reassure	-10554
▁rendered	-10555
▁settings	-10556
▁sterling	-10557
▁xinjiang	-10558
▁ceasefire	-10559
▁diversify	-10560
▁everybody	-10561
▁evidently	-10562
▁illnesses	-10563
▁inspiring	-10564
▁necessity	-10565
▁referenda	-10566
▁regulator	-10567
▁relevance	-10568
▁uncomfort	-10569
▁unleashed	-10570
▁violation	-10571
▁antibiotic	-10572
▁categories	-10573
▁delegation	-10574
▁healthcare	-10575
▁irrigation	-10576
▁organizing	-10577
▁practition	-10578
▁privileges	-10579
▁relentless	-10580
▁responsive	-10581
▁supportive	-10582
▁allegations	-10583
▁calculation	-10584
▁consecutive	-10585
▁signatories	-10586
▁unthinkable	-10587
establishment	-10588
▁environments	-10589
▁indifference	-10590
▁antimicrobial	-10591
▁transformative	-10592
▁unsurprisingly	-10593
ka	-10594
ym	-10595
zi	-10596
een	-10597
fed	-10598
iol	-10599
mus	-10600
ota	-10601
rup	-10602
usp	-10603
aved	-10604
avor	-10605
even	-10606
fast	-10607
flow	-10608
four	-10609
irac	-10610
link	-10611
plan	-10612
raid	-10613
uits	-10614
▁24%	-10615
▁400	-10616
▁alt	-10617
▁ara	-10618
▁cow	-10619
▁dat	-10620
▁eur	-10621
▁hay	-10622
▁rio	-10623
▁rud	-10624
▁tea	-10625
▁ves	-10626
ament	-10627
atisf	-10628
eling	-10629
heads	-10630
iency	-10631
peach	-10632
popul	-10633
ports	-10634
qaeda	-10635
sfeld	-10636
track	-10637
▁1991	-10638
▁axis	-10639
▁brca	-10640
▁cerv	-10641
▁cher	-10642
▁ctbt	-10643
▁damp	-10644
▁gini	-10645
▁hect	-10646
▁kiss	-10647
▁mine	-10648
▁stub	-10649
▁walk	-10650
ledged	-10651
priate	-10652
weight	-10653
▁1979,	-10654
▁aston	-10655
▁cents	-10656
▁exert	-10657
▁nazis	-10658
▁plate	-10659
▁recal	-10660
▁singh	-10661
▁sorts	-10662
▁spell	-10663
▁stamp	-10664
▁swath	-10665
▁texas	-10666
▁unden	-10667
▁urged	-10668
▁widen	-10669
arching	-10670
ication	-10671
itement	-10672
▁banned	-10673
▁chirac	-10674
▁clause	-10675
▁counts	-10676
▁derail	-10677
▁endure	-10678
▁fillon	-10679
▁handed	-10680
▁hatred	-10681
▁immune	-10682
▁infant	-10683
▁judged	-10684
▁overhe	-10685
▁puerto	-10686
▁repeal	-10687
▁subtle	-10688
▁timely	-10689
▁unesco	-10690
▁unjust	-10691
▁virtue	-10692
▁worlds	-10693
changing	-10694
japanese	-10695
regional	-10696
▁aligned	-10697
▁anytime	-10698
▁derived	-10699
▁desired	-10700
▁heating	-10701
▁mahmoud	-10702
▁offices	-10703
▁restaur	-10704
▁therapy	-10705
▁volunte	-10706
▁weakens	-10707
▁william	-10708
communist	-10709
▁articles	-10710
▁bulgaria	-10711
▁category	-10712
▁comments	-10713
▁concepts	-10714
▁confused	-10715
▁convened	-10716
▁diabetes	-10717
▁drinking	-10718
▁favoring	-10719
▁impeding	-10720
▁improves	-10721
▁interpre	-10722
▁killings	-10723
▁maturity	-10724
▁messages	-10725
▁mismatch	-10726
▁morality	-10727
▁protects	-10728
▁quantity	-10729
▁resisted	-10730
▁rumsfeld	-10731
▁senators	-10732
▁solvency	-10733
▁stubborn	-10734
▁survived	-10735
generation	-10736
ologically	-10737
▁blueprint	-10738
▁classical	-10739
▁exporting	-10740
▁himalayan	-10741
▁liberties	-10742
▁persuaded	-10743
▁reinvigor	-10744
▁reporters	-10745
▁submitted	-10746
▁wholesale	-10747
conditional	-10748
▁behavioral	-10749
▁bundesbank	-10750
▁complained	-10751
▁escalation	-10752
▁fulfilling	-10753
▁indirectly	-10754
▁kilometers	-10755
▁peacefully	-10756
▁questioned	-10757
▁reasonably	-10758
▁reassuring	-10759
▁rebuilding	-10760
▁undergoing	-10761
▁wealthiest	-10762
▁battlefield	-10763
▁compromised	-10764
▁contentious	-10765
▁departments	-10766
▁depreciated	-10767
▁destabilize	-10768
▁ingredients	-10769
▁outstanding	-10770
▁speculators	-10771
▁superiority	-10772
▁artificially	-10773
▁experimental	-10774
▁occasionally	-10775
▁persistently	-10776
▁corresponding	-10777
▁underestimate	-10778
▁systematically	-10779
-9	-10780
14	-10781
sl	-10782
ada	-10783
aky	-10784
bar	-10785
can	-10786
fsf	-10787
hon	-10788
iqu	-10789
mob	-10790
sub	-10791
airy	-10792
arab	-10793
door	-10794
imag	-10795
litz	-10796
mble	-10797
ribe	-10798
ugos	-10799
▁13%	-10800
▁2%.	-10801
▁gay	-10802
▁jar	-10803
▁jos	-10804
▁liu	-10805
▁sie	-10806
▁tie	-10807
▁upt	-10808
anged	-10809
asset	-10810
cture	-10811
enter	-10812
falls	-10813
human	-10814
iters	-10815
skill	-10816
smart	-10817
▁1920	-10818
▁ages	-10819
▁arts	-10820
▁aven	-10821
▁bout	-10822
▁boys	-10823
▁grab	-10824
▁marg	-10825
▁maur	-10826
▁rage	-10827
▁samp	-10828
▁soci	-10829
▁unif	-10830
erable	-10831
ulsion	-10832
worthy	-10833
▁congo	-10834
▁datab	-10835
▁dealt	-10836
▁email	-10837
▁fatal	-10838
▁incar	-10839
▁inval	-10840
▁items	-10841
▁posts	-10842
▁prest	-10843
▁quasi	-10844
▁secre	-10845
▁stars	-10846
▁steam	-10847
▁theme	-10848
▁versa	-10849
centric	-10850
ilitary	-10851
israeli	-10852
ittedly	-10853
ropower	-10854
russian	-10855
ugoslav	-10856
▁addict	-10857
▁breath	-10858
▁bribes	-10859
▁compos	-10860
▁cybers	-10861
▁darwin	-10862
▁dismal	-10863
▁forged	-10864
▁fruits	-10865
▁jailed	-10866
▁reiter	-10867
▁resume	-10868
▁sharon	-10869
▁tended	-10870
▁thirty	-10871
▁valued	-10872
children	-10873
location	-10874
payments	-10875
▁beating	-10876
▁bridges	-10877
▁curtain	-10878
▁destiny	-10879
▁intract	-10880
▁olympic	-10881
▁osborne	-10882
▁prerequ	-10883
▁pulling	-10884
▁reacted	-10885
▁readers	-10886
▁readily	-10887
▁rouhani	-10888
▁shortly	-10889
▁tyranny	-10890
▁unleash	-10891
▁volumes	-10892
americans	-10893
▁capitals	-10894
▁catalyst	-10895
▁converge	-10896
▁depended	-10897
▁embarked	-10898
▁everyday	-10899
▁flourish	-10900
▁imprison	-10901
▁rigorous	-10902
▁robotics	-10903
▁scottish	-10904
▁stopping	-10905
▁supercon	-10906
▁tropical	-10907
▁ventures	-10908
▁brutality	-10909
▁comprises	-10910
▁criticize	-10911
▁directors	-10912
▁exercises	-10913
▁exploited	-10914
▁hypocrisy	-10915
▁lawmakers	-10916
▁lifestyle	-10917
▁militants	-10918
▁neglected	-10919
▁paralysis	-10920
▁procedure	-10921
▁processed	-10922
▁resembles	-10923
▁sidelines	-10924
▁unlimited	-10925
functioning	-10926
▁competence	-10927
▁continuity	-10928
▁cyberspace	-10929
▁distressed	-10930
▁distribute	-10931
▁eighteenth	-10932
▁enormously	-10933
▁functional	-10934
▁historians	-10935
▁intervened	-10936
▁mobilizing	-10937
▁personally	-10938
▁preference	-10939
▁professors	-10940
▁recipients	-10941
▁successive	-10942
▁translated	-10943
productivity	-10944
▁appointment	-10945
▁conditional	-10946
▁conflicting	-10947
▁entitlement	-10948
▁overwhelmed	-10949
▁proportions	-10950
▁remittances	-10951
▁restoration	-10952
▁supervisory	-10953
▁susceptible	-10954
▁technically	-10955
▁unavoidable	-10956
globalization	-10957
▁administered	-10958
▁declarations	-10959
▁devaluations	-10960
▁differential	-10961
▁disappointed	-10962
▁liberalizing	-10963
▁simultaneous	-10964
▁contradictory	-10965
▁deterioration	-10966
▁jurisdictions	-10967
▁disappointment	-10968
▁diversification	-10969
dg	-10970
vs	-10971
1.3	-10972
1.5	-10973
ati	-10974
cit	-10975
mid	-10976
tim	-10977
xus	-10978
▁bc	-10979
ania	-10980
aque	-10981
card	-10982
core	-10983
esty	-10984
fulf	-10985
gery	-10986
hart	-10987
hips	-10988
inde	-10989
inis	-10990
this	-10991
when	-10992
▁etc	-10993
▁fta	-10994
▁geo	-10995
▁kir	-10996
▁pon	-10997
▁sla	-10998
▁twe	-10999
anmen	-11000
arraf	-11001
diagn	-11002
ilton	-11003
intao	-11004
itary	-11005
leave	-11006
lived	-11007
luded	-11008
ourge	-11009
ukuni	-11010
urban	-11011
▁1994	-11012
▁2.5%	-11013
▁bast	-11014
▁cite	-11015
▁glim	-11016
▁hole	-11017
▁holy	-11018
▁jeff	-11019
▁loop	-11020
▁medi	-11021
▁mend	-11022
▁milk	-11023
▁muse	-11024
▁neol	-11025
▁omin	-11026
▁owes	-11027
▁plen	-11028
▁spin	-11029
▁tape	-11030
▁thor	-11031
▁uber	-11032
▁user	-11033
arious	-11034
brazil	-11035
decade	-11036
import	-11037
reated	-11038
ridden	-11039
utable	-11040
▁agent	-11041
▁audit	-11042
▁bears	-11043
▁calam	-11044
▁cloud	-11045
▁condu	-11046
▁crony	-11047
▁disse	-11048
▁fired	-11049
▁glass	-11050
▁havoc	-11051
▁inert	-11052
▁inexp	-11053
▁misal	-11054
▁nexus	-11055
▁penet	-11056
▁peter	-11057
▁pilot	-11058
▁pipel	-11059
▁resum	-11060
▁shake	-11061
▁shame	-11062
▁slows	-11063
▁strip	-11064
▁tweet	-11065
▁uribe	-11066
embourg	-11067
ensibly	-11068
▁afraid	-11069
▁apolog	-11070
▁arises	-11071
▁bypass	-11072
▁deport	-11073
▁embass	-11074
▁enjoys	-11075
▁famine	-11076
▁flying	-11077
▁gandhi	-11078
▁hamper	-11079
▁insurg	-11080
▁jintao	-11081
▁killer	-11082
▁picked	-11083
▁pieces	-11084
▁submar	-11085
▁wilson	-11086
determin	-11087
▁anthrop	-11088
▁armenia	-11089
▁chamber	-11090
▁chooses	-11091
▁clarify	-11092
▁clinics	-11093
▁crowded	-11094
▁diamond	-11095
▁earning	-11096
▁endured	-11097
▁existed	-11098
▁fischer	-11099
▁garment	-11100
▁handled	-11101
▁hardlin	-11102
▁hitting	-11103
▁hostage	-11104
▁husband	-11105
▁inhibit	-11106
▁intrins	-11107
▁lowered	-11108
▁morales	-11109
▁origins	-11110
▁payroll	-11111
▁pledges	-11112
▁regards	-11113
▁reliant	-11114
▁revital	-11115
▁riskier	-11116
▁shouldn	-11117
▁speaker	-11118
▁strides	-11119
▁summits	-11120
▁widened	-11121
president	-11122
▁catching	-11123
▁contempt	-11124
▁deadline	-11125
▁deepened	-11126
▁drilling	-11127
▁enjoying	-11128
▁equation	-11129
▁hamilton	-11130
▁inclined	-11131
▁italians	-11132
▁journals	-11133
▁markedly	-11134
▁massacre	-11135
▁minerals	-11136
▁patience	-11137
▁precious	-11138
▁punished	-11139
▁punitive	-11140
▁rainfall	-11141
▁shopping	-11142
▁stiglitz	-11143
▁succeeds	-11144
▁tempting	-11145
▁thinkers	-11146
▁yasukuni	-11147
▁combining	-11148
▁competent	-11149
▁eradicate	-11150
▁incidents	-11151
▁infection	-11152
▁inflicted	-11153
▁logistics	-11154
▁pipelines	-11155
▁proactive	-11156
▁purchased	-11157
▁reactions	-11158
▁revealing	-11159
▁satisfied	-11160
▁therapies	-11161
▁viability	-11162
established	-11163
▁casualties	-11164
▁constraint	-11165
▁empowering	-11166
▁hydropower	-11167
▁internally	-11168
▁mitigating	-11169
▁moderation	-11170
▁nomination	-11171
▁pessimists	-11172
▁precarious	-11173
▁simplistic	-11174
▁unbalanced	-11175
▁diversified	-11176
▁exaggerated	-11177
▁expressions	-11178
▁inhabitants	-11179
▁withdrawing	-11180
▁perpetrators	-11181
▁totalitarian	-11182
▁disagreements	-11183
▁distinguished	-11184
▁externalities	-11185
▁capitalization	-11186
32	-11187
pa	-11188
-15	-11189
bec	-11190
blo	-11191
exp	-11192
iza	-11193
non	-11194
pat	-11195
rey	-11196
ros	-11197
two	-11198
”),	-11199
▁au	-11200
▁kg	-11201
amac	-11202
bons	-11203
cred	-11204
gian	-11205
igue	-11206
leum	-11207
meas	-11208
robi	-11209
soes	-11210
some	-11211
star	-11212
thes	-11213
tier	-11214
▁0.2	-11215
▁1.4	-11216
▁adh	-11217
▁fee	-11218
▁fsb	-11219
▁gau	-11220
▁shi	-11221
agers	-11222
allow	-11223
chner	-11224
iquid	-11225
spons	-11226
ucker	-11227
▁adds	-11228
▁bash	-11229
▁bell	-11230
▁blat	-11231
▁dies	-11232
▁girl	-11233
▁hasn	-11234
▁inqu	-11235
▁lens	-11236
▁nice	-11237
▁nich	-11238
▁orch	-11239
▁owed	-11240
▁sene	-11241
▁smes	-11242
▁synd	-11243
▁tone	-11244
▁zhou	-11245
ainted	-11246
andise	-11247
around	-11248
ewater	-11249
houses	-11250
linked	-11251
ourced	-11252
parent	-11253
return	-11254
tanbul	-11255
▁1992,	-11256
▁1999,	-11257
▁2002.	-11258
▁3,000	-11259
▁5,000	-11260
▁arrog	-11261
▁clock	-11262
▁dairy	-11263
▁dalai	-11264
▁disen	-11265
▁doses	-11266
▁loath	-11267
▁memor	-11268
▁messy	-11269
▁pecul	-11270
▁proxy	-11271
▁quota	-11272
▁sorry	-11273
▁stone	-11274
▁veter	-11275
amacare	-11276
ifiable	-11277
ighting	-11278
managed	-11279
manship	-11280
serving	-11281
welfare	-11282
▁angola	-11283
▁arctic	-11284
▁bhutan	-11285
▁bureau	-11286
▁confuc	-11287
▁dearth	-11288
▁futile	-11289
▁hailed	-11290
▁opaque	-11291
▁pestic	-11292
▁praise	-11293
▁remedy	-11294
▁rounds	-11295
▁stockp	-11296
▁surged	-11297
breaking	-11298
directed	-11299
educated	-11300
indebted	-11301
queville	-11302
resource	-11303
utionary	-11304
▁advised	-11305
▁besides	-11306
▁circles	-11307
▁clashes	-11308
▁commons	-11309
▁fantasy	-11310
▁fearing	-11311
▁fiction	-11312
▁heading	-11313
▁herself	-11314
▁hurdles	-11315
▁impacts	-11316
▁impeach	-11317
▁inappro	-11318
▁insists	-11319
▁loyalty	-11320
▁nuanced	-11321
▁offense	-11322
▁overest	-11323
▁plunged	-11324
▁prestig	-11325
▁senegal	-11326
▁unhappy	-11327
▁utterly	-11328
▁violate	-11329
▁branches	-11330
▁charisma	-11331
▁cleaning	-11332
▁divisive	-11333
▁factions	-11334
▁incurred	-11335
▁inflated	-11336
▁innovate	-11337
▁istanbul	-11338
▁margaret	-11339
▁metaphor	-11340
▁militant	-11341
▁needless	-11342
▁servants	-11343
▁societal	-11344
▁sympathy	-11345
▁thorough	-11346
▁tourists	-11347
▁colombian	-11348
▁decreased	-11349
▁diagnosed	-11350
▁excluding	-11351
▁execution	-11352
▁explosive	-11353
▁hungarian	-11354
▁kissinger	-11355
▁lingering	-11356
▁locations	-11357
▁notorious	-11358
▁plentiful	-11359
▁plummeted	-11360
▁polarized	-11361
▁scheduled	-11362
▁worldview	-11363
▁announcing	-11364
▁automobile	-11365
▁bolstering	-11366
▁collapsing	-11367
▁compassion	-11368
▁depressing	-11369
▁designated	-11370
▁dissidents	-11371
▁imposition	-11372
▁literature	-11373
▁luxembourg	-11374
▁ostensibly	-11375
▁prudential	-11376
▁quantities	-11377
▁wastewater	-11378
▁worthwhile	-11379
▁xenophobic	-11380
▁celebration	-11381
▁commissions	-11382
▁description	-11383
▁dismantling	-11384
▁merchandise	-11385
▁practically	-11386
▁specialized	-11387
▁strengthens	-11388
▁unrealistic	-11389
▁deteriorated	-11390
▁geographical	-11391
▁governmental	-11392
▁highlighting	-11393
▁incompetence	-11394
▁inconsistent	-11395
▁civilizations	-11396
▁discretionary	-11397
▁unconditional	-11398
▁unwillingness	-11399
▁investigations	-11400
▁nanotechnology	-11401
-4	-11402
21	-11403
1.4	-11404
agu	-11405
hot	-11406
iah	-11407
now	-11408
”).	-11409
▁(2	-11410
▁ok	-11411
achu	-11412
araj	-11413
ders	-11414
eled	-11415
inqu	-11416
iped	-11417
kind	-11418
oral	-11419
pins	-11420
take	-11421
they	-11422
ucks	-11423
▁2%,	-11424
▁21%	-11425
▁95%	-11426
▁boy	-11427
▁cdf	-11428
▁epp	-11429
▁gro	-11430
▁moz	-11431
▁nai	-11432
▁rav	-11433
▁thw	-11434
achal	-11435
amous	-11436
arthe	-11437
const	-11438
eline	-11439
ogens	-11440
pivot	-11441
qiang	-11442
ratic	-11443
ricts	-11444
roche	-11445
roots	-11446
setts	-11447
swana	-11448
ulent	-11449
▁1979	-11450
▁busy	-11451
▁butt	-11452
▁detr	-11453
▁emir	-11454
▁emit	-11455
▁forb	-11456
▁hast	-11457
▁hint	-11458
▁lama	-11459
▁mole	-11460
▁mund	-11461
▁rang	-11462
▁skew	-11463
▁wang	-11464
▁wear	-11465
inable	-11466
isible	-11467
▁1950’	-11468
▁1998,	-11469
▁2018,	-11470
▁beach	-11471
▁boris	-11472
▁brill	-11473
▁curve	-11474
▁films	-11475
▁grids	-11476
▁ingen	-11477
▁kerry	-11478
▁naren	-11479
▁opted	-11480
▁pregn	-11481
▁rebel	-11482
▁sixth	-11483
▁sober	-11484
▁stuff	-11485
▁tenth	-11486
▁theor	-11487
▁twist	-11488
▁visas	-11489
artheid	-11490
fledged	-11491
foreign	-11492
semitic	-11493
setting	-11494
sighted	-11495
termism	-11496
▁abound	-11497
▁bosses	-11498
▁caliph	-11499
▁covert	-11500
▁crunch	-11501
▁dubbed	-11502
▁hosted	-11503
▁impart	-11504
▁kenyan	-11505
▁makers	-11506
▁masses	-11507
▁merits	-11508
▁meters	-11509
▁panama	-11510
▁resett	-11511
▁submit	-11512
▁trades	-11513
▁wisely	-11514
entially	-11515
iniscent	-11516
reported	-11517
utrition	-11518
▁300,000	-11519
▁acquies	-11520
▁anxious	-11521
▁arising	-11522
▁blaming	-11523
▁dictate	-11524
▁escaped	-11525
▁exclude	-11526
▁fertile	-11527
▁founder	-11528
▁ideally	-11529
▁impetus	-11530
▁matched	-11531
▁nairobi	-11532
▁obliged	-11533
▁permits	-11534
▁preempt	-11535
▁reactor	-11536
▁reservo	-11537
▁serbian	-11538
▁smarter	-11539
▁utility	-11540
▁varying	-11541
achusetts	-11542
rochement	-11543
strategic	-11544
▁academia	-11545
▁arriving	-11546
▁blessing	-11547
▁botswana	-11548
▁centered	-11549
▁commonly	-11550
▁consists	-11551
▁crossing	-11552
▁deprived	-11553
▁disclose	-11554
▁dissemin	-11555
▁efficacy	-11556
▁embodied	-11557
▁graduate	-11558
▁gridlock	-11559
▁handling	-11560
▁inferior	-11561
▁insurers	-11562
▁interior	-11563
▁landmark	-11564
▁militias	-11565
▁narendra	-11566
▁nigerian	-11567
▁provider	-11568
▁reinvent	-11569
▁relating	-11570
▁resigned	-11571
▁retrench	-11572
▁ruthless	-11573
▁shutdown	-11574
▁sizeable	-11575
▁subprime	-11576
▁tailored	-11577
▁tribunal	-11578
▁uprising	-11579
▁villages	-11580
revolution	-11581
▁avoidance	-11582
▁computing	-11583
▁denounced	-11584
▁detriment	-11585
▁disparate	-11586
▁enforcing	-11587
▁intensive	-11588
▁judgments	-11589
▁modernize	-11590
▁petroleum	-11591
▁planetary	-11592
▁portrayed	-11593
▁privilege	-11594
▁relatives	-11595
▁resisting	-11596
▁spillover	-11597
▁surrender	-11598
▁tiananmen	-11599
▁utilities	-11600
▁wealthier	-11601
palestinian	-11602
▁achievable	-11603
▁admittedly	-11604
▁championed	-11605
▁circumvent	-11606
▁courageous	-11607
▁curriculum	-11608
▁depositors	-11609
▁engineered	-11610
▁expressing	-11611
▁leveraging	-11612
▁lifestyles	-11613
▁minimizing	-11614
▁monopolies	-11615
▁neoliberal	-11616
▁oppression	-11617
▁overshadow	-11618
▁pragmatism	-11619
▁prosecutor	-11620
▁stagnating	-11621
▁xenophobia	-11622
▁citizenship	-11623
▁collaborate	-11624
▁countryside	-11625
▁denominated	-11626
▁manipulated	-11627
▁observation	-11628
▁personality	-11629
▁reminiscent	-11630
▁resolutions	-11631
▁substantive	-11632
▁unregulated	-11633
▁enthusiastic	-11634
▁intensifying	-11635
▁questionable	-11636
▁systemically	-11637
▁disadvantaged	-11638
▁massachusetts	-11639
▁practitioners	-11640
▁precautionary	-11641
▁rapprochement	-11642
▁uncomfortable	-11643
bad	-11644
ida	-11645
ona	-11646
raw	-11647
rig	-11648
▁34	-11649
▁36	-11650
▁py	-11651
ales	-11652
bene	-11653
deep	-11654
gans	-11655
imer	-11656
imil	-11657
iral	-11658
oper	-11659
poor	-11660
pran	-11661
roso	-11662
shed	-11663
wind	-11664
zhen	-11665
zhou	-11666
▁biz	-11667
▁cpc	-11668
▁gif	-11669
▁jim	-11670
▁mek	-11671
▁nit	-11672
▁npt	-11673
▁ott	-11674
▁owe	-11675
▁rmb	-11676
▁til	-11677
,000.	-11678
achev	-11679
aping	-11680
ctive	-11681
eness	-11682
gener	-11683
isure	-11684
liest	-11685
onial	-11686
otion	-11687
otism	-11688
rance	-11689
umble	-11690
▁1900	-11691
▁1992	-11692
▁1999	-11693
▁3.5%	-11694
▁50%.	-11695
▁6.5%	-11696
▁audi	-11697
▁awak	-11698
▁clim	-11699
▁dawn	-11700
▁eman	-11701
▁emig	-11702
▁fren	-11703
▁glut	-11704
▁hamb	-11705
▁lith	-11706
▁peso	-11707
▁plut	-11708
▁poet	-11709
▁sway	-11710
▁tale	-11711
▁tanz	-11712
▁thro	-11713
▁utop	-11714
▁wasn	-11715
▁yang	-11716
former	-11717
oliday	-11718
reason	-11719
second	-11720
strong	-11721
▁betra	-11722
▁diets	-11723
▁disgu	-11724
▁dread	-11725
▁drift	-11726
▁erect	-11727
▁expon	-11728
▁heter	-11729
▁horse	-11730
▁hosni	-11731
▁janet	-11732
▁lunch	-11733
▁marry	-11734
▁naive	-11735
▁onset	-11736
▁redef	-11737
▁shore	-11738
▁siege	-11739
▁stall	-11740
▁unche	-11741
balance	-11742
compass	-11743
conserv	-11744
repared	-11745
ustomed	-11746
versely	-11747
▁allied	-11748
▁autumn	-11749
▁commem	-11750
▁covers	-11751
▁deduct	-11752
▁edward	-11753
▁fukush	-11754
▁hungry	-11755
▁licens	-11756
▁muscle	-11757
▁museum	-11758
▁nostal	-11759
▁occupy	-11760
▁overst	-11761
▁puzzle	-11762
▁routes	-11763
▁speaks	-11764
▁strife	-11765
▁strive	-11766
▁syriza	-11767
▁unlock	-11768
▁unsett	-11769
▁worthy	-11770
▁yester	-11771
▁apparat	-11772
▁barroso	-11773
▁chapter	-11774
▁drastic	-11775
▁forging	-11776
▁hopeful	-11777
▁inertia	-11778
▁inspect	-11779
▁jacques	-11780
▁leftist	-11781
▁leisure	-11782
▁locally	-11783
▁manages	-11784
▁officer	-11785
▁outlays	-11786
▁profile	-11787
▁quantum	-11788
▁quietly	-11789
▁reminds	-11790
▁replied	-11791
▁retired	-11792
▁rolling	-11793
▁shocked	-11794
▁signing	-11795
▁subsidy	-11796
▁tightly	-11797
▁tripled	-11798
▁vessels	-11799
▁winston	-11800
▁wounded	-11801
dominated	-11802
sponsored	-11803
ugoslavia	-11804
▁absorbed	-11805
▁airlines	-11806
▁counting	-11807
▁escaping	-11808
▁extremes	-11809
▁fortunes	-11810
▁hardship	-11811
▁inconven	-11812
▁instance	-11813
▁location	-11814
▁outlined	-11815
▁reminded	-11816
▁shenzhen	-11817
▁sometime	-11818
▁stewards	-11819
▁subjects	-11820
▁variable	-11821
▁vigorous	-11822
▁ambiguous	-11823
▁convicted	-11824
▁defenders	-11825
▁deterrent	-11826
▁districts	-11827
▁holocaust	-11828
▁millennia	-11829
▁musharraf	-11830
▁obsession	-11831
▁postponed	-11832
▁rebalance	-11833
▁sentences	-11834
▁spotlight	-11835
▁unchecked	-11836
▁undergone	-11837
▁accordance	-11838
▁appearance	-11839
▁compatible	-11840
▁completion	-11841
▁conducting	-11842
▁conspiracy	-11843
▁cosmopolit	-11844
▁critically	-11845
▁dimensions	-11846
▁helicopter	-11847
▁insurgents	-11848
▁jeopardize	-11849
▁majorities	-11850
▁objections	-11851
▁offsetting	-11852
▁preventive	-11853
▁prioritize	-11854
▁pronounced	-11855
▁squandered	-11856
▁stabilized	-11857
▁subsidized	-11858
▁suggestion	-11859
▁valuations	-11860
▁venezuelan	-11861
▁intractable	-11862
▁meaningless	-11863
▁overarching	-11864
▁overheating	-11865
▁proceedings	-11866
▁recruitment	-11867
▁specialists	-11868
▁undervalued	-11869
▁accumulating	-11870
▁commonwealth	-11871
▁constraining	-11872
▁deficiencies	-11873
▁exacerbating	-11874
▁imprisonment	-11875
▁jeopardizing	-11876
▁malnutrition	-11877
▁manipulating	-11878
▁assertiveness	-11879
▁socioeconomic	-11880
▁attractiveness	-11881
-5	-11882
-6	-11883
df	-11884
fa	-11885
ado	-11886
eds	-11887
rov	-11888
umi	-11889
une	-11890
▁lg	-11891
amil	-11892
aned	-11893
anks	-11894
arde	-11895
arre	-11896
best	-11897
ches	-11898
elps	-11899
epid	-11900
lude	-11901
oglo	-11902
paid	-11903
▁14%	-11904
▁28%	-11905
▁aby	-11906
▁aer	-11907
▁ale	-11908
▁gig	-11909
▁iii	-11910
▁raz	-11911
▁toc	-11912
,000,	-11913
aires	-11914
angel	-11915
apego	-11916
elior	-11917
grown	-11918
inges	-11919
ivism	-11920
moder	-11921
ocaly	-11922
ombie	-11923
steps	-11924
worth	-11925
▁10%.	-11926
▁20%,	-11927
▁boon	-11928
▁drew	-11929
▁evac	-11930
▁glac	-11931
▁hind	-11932
▁hugo	-11933
▁page	-11934
▁pent	-11935
▁rall	-11936
▁saud	-11937
▁ugly	-11938
aching	-11939
akable	-11940
giving	-11941
glomer	-11942
intern	-11943
ixture	-11944
letion	-11945
olitan	-11946
ometer	-11947
undrum	-11948
▁2018.	-11949
▁2025.	-11950
▁bache	-11951
▁ballo	-11952
▁cuban	-11953
▁drama	-11954
▁embar	-11955
▁larry	-11956
▁morph	-11957
▁parap	-11958
▁slide	-11959
▁stric	-11960
▁thank	-11961
▁troop	-11962
▁verge	-11963
▁wheat	-11964
itively	-11965
million	-11966
raining	-11967
▁agrees	-11968
▁alumin	-11969
▁cartel	-11970
▁carter	-11971
▁citing	-11972
▁coffee	-11973
▁coined	-11974
▁defect	-11975
▁depict	-11976
▁enroll	-11977
▁enters	-11978
▁equals	-11979
▁freeze	-11980
▁glance	-11981
▁harbor	-11982
▁indoor	-11983
▁karzai	-11984
▁milton	-11985
▁muster	-11986
▁napole	-11987
▁noting	-11988
▁nurses	-11989
▁phelps	-11990
▁pulled	-11991
▁repaid	-11992
▁replic	-11993
▁screen	-11994
▁silvio	-11995
▁testim	-11996
▁traits	-11997
▁uneven	-11998
▁virgin	-11999
ourished	-12000
standard	-12001
▁adapted	-12002
▁albania	-12003
▁amelior	-12004
▁analyze	-12005
▁beneath	-12006
▁bombing	-12007
▁chaotic	-12008
▁coexist	-12009
▁costing	-12010
▁decides	-12011
▁devised	-12012
▁dragged	-12013
▁endemic	-12014
▁harvest	-12015
▁hunting	-12016
▁illiter	-12017
▁inherit	-12018
▁keqiang	-12019
▁mercant	-12020
▁polling	-12021
▁proflig	-12022
▁retains	-12023
▁scaling	-12024
▁session	-12025
▁slavery	-12026
▁turnout	-12027
criptions	-12028
▁americas	-12029
▁analyses	-12030
▁bachelet	-12031
▁cervical	-12032
▁coercion	-12033
▁defended	-12034
▁develops	-12035
▁diamonds	-12036
▁dividing	-12037
▁downgrad	-12038
▁duration	-12039
▁eligible	-12040
▁highways	-12041
▁incoming	-12042
▁mohammed	-12043
▁pandemic	-12044
▁peculiar	-12045
▁perilous	-12046
▁predicts	-12047
▁scarcely	-12048
▁sticking	-12049
▁tortured	-12050
▁vigilant	-12051
▁abundance	-12052
▁adjusting	-12053
▁alleviate	-12054
▁apparatus	-12055
▁audiences	-12056
▁basically	-12057
▁bloodshed	-12058
▁bolstered	-12059
▁chemicals	-12060
▁compelled	-12061
▁conglomer	-12062
▁conundrum	-12063
▁designing	-12064
▁diffusion	-12065
▁dissatisf	-12066
▁fukushima	-12067
▁hollywood	-12068
▁importers	-12069
▁importing	-12070
▁listening	-12071
▁lucrative	-12072
▁measuring	-12073
▁mobilized	-12074
▁pandemics	-12075
▁parallels	-12076
▁pathogens	-12077
▁polluting	-12078
▁prevalent	-12079
▁readiness	-12080
▁reckoning	-12081
▁recycling	-12082
▁repayment	-12083
▁taiwanese	-12084
▁yesterday	-12085
▁accustomed	-12086
▁asymmetric	-12087
▁authorized	-12088
▁celebrated	-12089
▁christians	-12090
▁commentary	-12091
▁completing	-12092
▁contingent	-12093
▁documented	-12094
▁extraction	-12095
▁harassment	-12096
▁invitation	-12097
▁positively	-12098
▁recovering	-12099
▁sacrifices	-12100
▁structured	-12101
▁campaigners	-12102
▁coincidence	-12103
▁communicate	-12104
▁constructed	-12105
▁contemplate	-12106
▁disciplines	-12107
▁discoveries	-12108
▁drastically	-12109
▁intervening	-12110
▁mathematics	-12111
▁pessimistic	-12112
▁refinancing	-12113
▁tocqueville	-12114
▁transferred	-12115
▁underscored	-12116
▁voluntarily	-12117
▁consequently	-12118
▁continuation	-12119
▁incompatible	-12120
▁individually	-12121
▁metropolitan	-12122
▁modification	-12123
▁technocratic	-12124
▁transferring	-12125
▁nationalistic	-12126
▁reunification	-12127
19	-12128
dy	-12129
ais	-12130
aya	-12131
ett	-12132
gar	-12133
mir	-12134
mod	-12135
oft	-12136
pie	-12137
pse	-12138
sil	-12139
var	-12140
yes	-12141
zbe	-12142
▁32	-12143
▁33	-12144
▁bp	-12145
-198	-12146
aint	-12147
dest	-12148
food	-12149
game	-12150
habi	-12151
inal	-12152
ivoc	-12153
ldom	-12154
make	-12155
only	-12156
rank	-12157
rome	-12158
ttes	-12159
uber	-12160
uese	-12161
▁1.6	-12162
▁10.	-12163
▁18%	-12164
▁36%	-12165
▁38%	-12166
▁amn	-12167
▁drc	-12168
▁esg	-12169
▁eve	-12170
▁fer	-12171
▁gor	-12172
▁gul	-12173
▁kat	-12174
▁lax	-12175
▁mps	-12176
▁pig	-12177
▁woe	-12178
▁yuk	-12179
aspor	-12180
books	-12181
cally	-12182
creat	-12183
cycle	-12184
eller	-12185
ender	-12186
erion	-12187
ioxid	-12188
mobil	-12189
mount	-12190
polar	-12191
pture	-12192
surge	-12193
▁1996	-12194
▁appl	-12195
▁arun	-12196
▁dani	-12197
▁dent	-12198
▁drow	-12199
▁fern	-12200
▁fifa	-12201
▁fits	-12202
▁gorb	-12203
▁inad	-12204
▁jere	-12205
▁opec	-12206
▁oslo	-12207
▁peas	-12208
▁quit	-12209
▁rico	-12210
▁rogo	-12211
▁sich	-12212
▁uzbe	-12213
▁vain	-12214
arette	-12215
author	-12216
pheric	-12217
rapped	-12218
▁abide	-12219
▁aided	-12220
▁arena	-12221
▁atroc	-12222
▁burge	-12223
▁chimp	-12224
▁chron	-12225
▁debac	-12226
▁egreg	-12227
▁erupt	-12228
▁hosts	-12229
▁hotel	-12230
▁insid	-12231
▁jiang	-12232
▁kills	-12233
▁kurds	-12234
▁laden	-12235
▁meets	-12236
▁osama	-12237
▁paved	-12238
▁petty	-12239
▁scant	-12240
▁shark	-12241
▁smoke	-12242
▁spots	-12243
▁sugar	-12244
▁tepid	-12245
▁unman	-12246
angered	-12247
arettes	-12248
carbons	-12249
imposed	-12250
istence	-12251
keepers	-12252
oglobin	-12253
overing	-12254
respect	-12255
seeking	-12256
▁anchor	-12257
▁buffer	-12258
▁clever	-12259
▁comply	-12260
▁crowds	-12261
▁delays	-12262
▁finger	-12263
▁hiding	-12264
▁landsl	-12265
▁lights	-12266
▁mature	-12267
▁mekong	-12268
▁mirror	-12269
▁peaked	-12270
▁posing	-12271
▁saudis	-12272
▁scaled	-12273
▁seldom	-12274
▁spared	-12275
▁supran	-12276
▁surviv	-12277
▁airport	-12278
▁approve	-12279
▁baghdad	-12280
▁barring	-12281
▁belongs	-12282
▁bizarre	-12283
▁bonuses	-12284
▁cartels	-12285
▁charity	-12286
▁diaspor	-12287
▁dumping	-12288
▁embargo	-12289
▁embassy	-12290
▁emotion	-12291
▁employs	-12292
▁hackers	-12293
▁heights	-12294
▁highway	-12295
▁invaded	-12296
▁lithuan	-12297
▁married	-12298
▁mixture	-12299
▁nurture	-12300
▁obscure	-12301
▁orchest	-12302
▁patents	-12303
▁presupp	-12304
▁proving	-12305
▁ranking	-12306
▁scapego	-12307
▁securit	-12308
▁shelter	-12309
▁sichuan	-12310
▁surgery	-12311
▁tapping	-12312
▁telecom	-12313
▁turkmen	-12314
▁underwr	-12315
▁uniform	-12316
▁virtues	-12317
▁wonders	-12318
▁writers	-12319
exporting	-12320
▁aluminum	-12321
▁antioxid	-12322
▁buddhist	-12323
▁depleted	-12324
▁envision	-12325
▁exposing	-12326
▁fiscally	-12327
▁goodwill	-12328
▁mandates	-12329
▁observer	-12330
▁obsessed	-12331
▁proceeds	-12332
▁proteins	-12333
▁provoked	-12334
▁radicals	-12335
▁reassert	-12336
▁recourse	-12337
▁register	-12338
▁remedies	-12339
▁resemble	-12340
▁retained	-12341
▁surveyed	-12342
▁takeover	-12343
▁tanzania	-12344
▁totaling	-12345
▁tradeoff	-12346
▁uniquely	-12347
▁abilities	-12348
▁accompany	-12349
▁arunachal	-12350
▁attending	-12351
▁beautiful	-12352
▁composite	-12353
▁disparity	-12354
▁disrupted	-12355
▁employing	-12356
▁enshrined	-12357
▁francisco	-12358
▁gorbachev	-12359
▁interbank	-12360
▁mentality	-12361
▁paramount	-12362
▁physician	-12363
▁rejecting	-12364
▁servicing	-12365
▁substance	-12366
▁turbulent	-12367
▁unrelated	-12368
▁administer	-12369
▁analytical	-12370
▁annexation	-12371
▁broadening	-12372
▁burgeoning	-12373
▁deductions	-12374
▁domination	-12375
▁endangered	-12376
▁enrichment	-12377
▁hardliners	-12378
▁hesitation	-12379
▁multipolar	-12380
▁portuguese	-12381
▁powerhouse	-12382
▁prevalence	-12383
▁tendencies	-12384
▁unraveling	-12385
▁advancement	-12386
▁appreciated	-12387
▁contracting	-12388
▁contributor	-12389
▁deteriorate	-12390
▁inexpensive	-12391
▁investigate	-12392
▁orientation	-12393
▁preparation	-12394
▁retaliation	-12395
▁stewardship	-12396
▁compromising	-12397
▁consolidated	-12398
▁consultation	-12399
▁cosmopolitan	-12400
▁discouraging	-12401
▁generational	-12402
▁headquarters	-12403
▁hydrocarbons	-12404
▁peacekeeping	-12405
▁complications	-12406
▁philosophical	-12407
▁supranational	-12408
18	-12409
bd	-12410
jp	-12411
ju	-12412
1.1	-12413
chi	-12414
dog	-12415
eur	-12416
him	-12417
ids	-12418
pos	-12419
rac	-12420
wat	-12421
▁29	-12422
▁37	-12423
▁75	-12424
▁fu	-12425
▁ju	-12426
▁ni	-12427
▁si	-12428
apor	-12429
bled	-12430
chen	-12431
chew	-12432
fail	-12433
from	-12434
gang	-12435
held	-12436
lene	-12437
main	-12438
mand	-12439
meal	-12440
mese	-12441
neth	-12442
okes	-12443
stri	-12444
turn	-12445
▁0.3	-12446
▁1%.	-12447
▁42%	-12448
▁cod	-12449
▁emu	-12450
▁gnp	-12451
▁gut	-12452
▁hed	-12453
▁hoc	-12454
▁les	-12455
▁mgi	-12456
▁obl	-12457
▁rod	-12458
chant	-12459
iller	-12460
illes	-12461
izumi	-12462
lance	-12463
pable	-12464
range	-12465
▁1940	-12466
▁1995	-12467
▁agro	-12468
▁bans	-12469
▁bump	-12470
▁carn	-12471
▁chun	-12472
▁clou	-12473
▁dwar	-12474
▁efsf	-12475
▁fans	-12476
▁gate	-12477
▁guns	-12478
▁hell	-12479
▁horm	-12480
▁lump	-12481
▁mikh	-12482
▁mong	-12483
▁moon	-12484
▁ours	-12485
▁pair	-12486
▁pino	-12487
▁pisa	-12488
▁pour	-12489
▁ruin	-12490
▁sink	-12491
▁unve	-12492
▁ussr	-12493
▁vend	-12494
buying	-12495
franch	-12496
igroup	-12497
keynes	-12498
losion	-12499
paying	-12500
riding	-12501
rolled	-12502
▁1980,	-12503
▁2000’	-12504
▁2004.	-12505
▁absor	-12506
▁abyss	-12507
▁blocs	-12508
▁cardi	-12509
▁chase	-12510
▁diarr	-12511
▁dilma	-12512
▁downs	-12513
▁dwell	-12514
▁eleph	-12515
▁envis	-12516
▁grapp	-12517
▁hague	-12518
▁haunt	-12519
▁induc	-12520
▁inner	-12521
▁kemal	-12522
▁lenin	-12523
▁libel	-12524
▁looph	-12525
▁loses	-12526
▁lucky	-12527
▁magaz	-12528
▁paths	-12529
▁quint	-12530
▁rents	-12531
▁riots	-12532
▁scrat	-12533
▁shaky	-12534
▁shrug	-12535
▁suits	-12536
▁swell	-12537
▁upris	-12538
▁usage	-12539
banking	-12540
billion	-12541
correct	-12542
increas	-12543
neutral	-12544
politik	-12545
▁20,000	-12546
▁babies	-12547
▁bernie	-12548
▁broker	-12549
▁convey	-12550
▁derive	-12551
▁digest	-12552
▁divest	-12553
▁domain	-12554
▁elabor	-12555
▁embold	-12556
▁eschew	-12557
▁exuber	-12558
▁havens	-12559
▁hugely	-12560
▁impair	-12561
▁mandar	-12562
▁mantra	-12563
▁nearby	-12564
▁orange	-12565
▁passes	-12566
▁prover	-12567
▁racist	-12568
▁redund	-12569
▁rigged	-12570
▁rogoff	-12571
▁rumors	-12572
▁salary	-12573
▁sister	-12574
▁stifle	-12575
▁tactic	-12576
▁transc	-12577
▁varied	-12578
▁warsaw	-12579
earnings	-12580
ensurate	-12581
majority	-12582
pakistan	-12583
▁amnesty	-12584
▁angeles	-12585
▁anymore	-12586
▁bloated	-12587
▁burmese	-12588
▁chilean	-12589
▁clauses	-12590
▁condemn	-12591
▁deceler	-12592
▁defines	-12593
▁divides	-12594
▁eurasia	-12595
▁exiting	-12596
▁fascist	-12597
▁fathers	-12598
▁filling	-12599
▁hosting	-12600
▁impeded	-12601
▁insider	-12602
▁instant	-12603
▁kashmir	-12604
▁kenneth	-12605
▁killers	-12606
▁koizumi	-12607
▁lagarde	-12608
▁library	-12609
▁longest	-12610
▁midterm	-12611
▁mikhail	-12612
▁monetar	-12613
▁passive	-12614
▁peasant	-12615
▁predica	-12616
▁provoke	-12617
▁redress	-12618
▁rejects	-12619
▁smokers	-12620
▁station	-12621
▁stature	-12622
▁symbols	-12623
▁teacher	-12624
▁tencent	-12625
▁volcker	-12626
alitarian	-12627
democracy	-12628
uckerberg	-12629
▁abdullah	-12630
▁answered	-12631
▁asserted	-12632
▁assessed	-12633
▁bombings	-12634
▁canceled	-12635
▁critique	-12636
▁delaying	-12637
▁detained	-12638
▁deterred	-12639
▁elevated	-12640
▁hardline	-12641
▁headscar	-12642
▁kirchner	-12643
▁mandated	-12644
▁meddling	-12645
▁operated	-12646
▁peasants	-12647
▁pinochet	-12648
▁polluted	-12649
▁presumed	-12650
▁prohibit	-12651
▁psychiat	-12652
▁reactors	-12653
▁reaffirm	-12654
▁resolute	-12655
▁rewarded	-12656
▁schedule	-12657
▁slovakia	-12658
▁stresses	-12659
▁supplier	-12660
▁taxpayer	-12661
▁traveled	-12662
worthiness	-12663
▁abolished	-12664
▁abolition	-12665
▁alexander	-12666
▁anonymous	-12667
▁apartheid	-12668
▁attribute	-12669
▁believers	-12670
▁civilized	-12671
▁colleague	-12672
▁communiqu	-12673
▁comparing	-12674
▁consuming	-12675
▁copyright	-12676
▁criterion	-12677
▁divergent	-12678
▁dominates	-12679
▁downturns	-12680
▁egregious	-12681
▁exploring	-12682
▁fortunate	-12683
▁fulfilled	-12684
▁hegemonic	-12685
▁homegrown	-12686
▁installed	-12687
▁invention	-12688
▁invisible	-12689
▁jihadists	-12690
▁manifesto	-12691
▁massively	-12692
▁mercantil	-12693
▁modernity	-12694
▁occupying	-12695
▁optimists	-12696
▁organisms	-12697
▁paralyzed	-12698
▁searching	-12699
▁subsidize	-12700
▁surrogacy	-12701
▁survivors	-12702
▁testimony	-12703
▁underpins	-12704
▁uprisings	-12705
competitive	-12706
▁architects	-12707
▁atrocities	-12708
▁conception	-12709
▁disability	-12710
▁distortion	-12711
▁downstream	-12712
▁exxonmobil	-12713
▁friendship	-12714
▁geographic	-12715
▁grassroots	-12716
▁incumbents	-12717
▁influences	-12718
▁invaluable	-12719
▁overvalued	-12720
▁references	-12721
▁reiterated	-12722
▁resurgence	-12723
▁rethinking	-12724
▁sovereigns	-12725
▁standpoint	-12726
▁successors	-12727
▁surrounded	-12728
▁trilateral	-12729
▁undeniable	-12730
▁yugoslavia	-12731
▁affirmative	-12732
▁articulated	-12733
▁automobiles	-12734
▁campaigning	-12735
▁compensated	-12736
▁convenience	-12737
▁disaffected	-12738
▁exploration	-12739
▁facilitates	-12740
▁incorporate	-12741
▁influencing	-12742
▁preoccupied	-12743
▁programming	-12744
▁questioning	-12745
▁suppressing	-12746
▁associations	-12747
▁attributable	-12748
▁constituents	-12749
▁demographics	-12750
▁mathematical	-12751
▁prerequisite	-12752
▁relentlessly	-12753
▁assassination	-12754
▁consolidating	-12755
▁consultations	-12756
▁demonstration	-12757
▁entertainment	-12758
▁harmonization	-12759
▁mismanagement	-12760
▁mutualization	-12761
▁conditionality	-12762
▁intermediaries	-12763
▁multinationals	-12764
▁predictability	-12765
cu	-12766
ho	-12767
ji	-12768
oa	-12769
uy	-12770
-90	-12771
bol	-12772
eas	-12773
ela	-12774
iko	-12775
irt	-12776
ofi	-12777
oln	-12778
zhe	-12779
▁6,	-12780
....	-12781
abad	-12782
acea	-12783
atia	-12784
bing	-12785
bott	-12786
cold	-12787
defe	-12788
eday	-12789
fair	-12790
fake	-12791
hour	-12792
inda	-12793
open	-12794
pboc	-12795
rows	-12796
rule	-12797
ture	-12798
ukou	-12799
viol	-12800
▁1.8	-12801
▁44%	-12802
▁aip	-12803
▁bag	-12804
▁cbo	-12805
▁ldp	-12806
▁ngo	-12807
▁sed	-12808
▁shy	-12809
▁tel	-12810
▁tip	-12811
▁ton	-12812
aders	-12813
ammar	-12814
chequ	-12815
chnya	-12816
eting	-12817
found	-12818
fting	-12819
icate	-12820
index	-12821
neigh	-12822
ogene	-12823
orous	-12824
osity	-12825
rooms	-12826
space	-12827
stage	-12828
still	-12829
umbia	-12830
▁0.7%	-12831
▁1967	-12832
▁asks	-12833
▁aung	-12834
▁beth	-12835
▁boko	-12836
▁cler	-12837
▁defl	-12838
▁dorm	-12839
▁fest	-12840
▁flor	-12841
▁fold	-12842
▁frid	-12843
▁furn	-12844
▁gear	-12845
▁hans	-12846
▁ills	-12847
▁karl	-12848
▁lock	-12849
▁lows	-12850
▁mike	-12851
▁mode	-12852
▁myst	-12853
▁plug	-12854
▁spaw	-12855
▁stip	-12856
▁tall	-12857
▁tyco	-12858
conian	-12859
ialism	-12860
istina	-12861
licted	-12862
middle	-12863
partic	-12864
scious	-12865
thetic	-12866
uccess	-12867
vation	-12868
▁1973,	-12869
▁ababa	-12870
▁abdel	-12871
▁addis	-12872
▁alzhe	-12873
▁arist	-12874
▁arose	-12875
▁attor	-12876
▁biden	-12877
▁clamp	-12878
▁cling	-12879
▁clust	-12880
▁confl	-12881
▁corps	-12882
▁draws	-12883
▁expro	-12884
▁filed	-12885
▁filip	-12886
▁fores	-12887
▁genet	-12888
▁haram	-12889
▁hayek	-12890
▁highs	-12891
▁implo	-12892
▁incub	-12893
▁lifes	-12894
▁lingu	-12895
▁recei	-12896
▁recru	-12897
▁renzi	-12898
▁reval	-12899
▁revis	-12900
▁semin	-12901
▁shoes	-12902
▁turks	-12903
▁vocal	-12904
▁yukos	-12905
chequer	-12906
healthy	-12907
lasting	-12908
pricing	-12909
ranking	-12910
secular	-12911
urances	-12912
▁andrew	-12913
▁ascend	-12914
▁assign	-12915
▁bengal	-12916
▁biomed	-12917
▁castro	-12918
▁corrid	-12919
▁couldn	-12920
▁diseng	-12921
▁endang	-12922
▁extrav	-12923
▁hotels	-12924
▁hubris	-12925
▁inquir	-12926
▁ironic	-12927
▁jeremy	-12928
▁maduro	-12929
▁misery	-12930
▁misuse	-12931
▁morgan	-12932
▁motion	-12933
▁myself	-12934
▁oxygen	-12935
▁patron	-12936
▁prague	-12937
▁priced	-12938
▁sacred	-12939
▁shorts	-12940
▁skewed	-12941
▁spaces	-12942
▁staged	-12943
▁strait	-12944
▁stupid	-12945
▁tumult	-12946
▁wildly	-12947
▁writes	-12948
designed	-12949
independ	-12950
pectedly	-12951
tradable	-12952
whatever	-12953
▁accepts	-12954
▁catalan	-12955
▁charlie	-12956
▁cricket	-12957
▁culprit	-12958
▁debacle	-12959
▁designs	-12960
▁emitted	-12961
▁ensured	-12962
▁evangel	-12963
▁faction	-12964
▁fearful	-12965
▁fosters	-12966
▁holiday	-12967
▁moments	-12968
▁muammar	-12969
▁nascent	-12970
▁panacea	-12971
▁pandora	-12972
▁paraphr	-12973
▁plateau	-12974
▁pursues	-12975
▁risking	-12976
▁seattle	-12977
▁seeming	-12978
▁selfish	-12979
▁solvent	-12980
▁someday	-12981
▁suffice	-12982
▁upgrade	-12983
▁wrought	-12984
etization	-12985
icultural	-12986
terrorism	-12987
valuation	-12988
▁chechnya	-12989
▁columbia	-12990
▁commemor	-12991
▁database	-12992
▁deadlock	-12993
▁delicate	-12994
▁destined	-12995
▁diplomat	-12996
▁electron	-12997
▁exciting	-12998
▁finished	-12999
▁friction	-13000
▁hesitate	-13001
▁homeland	-13002
▁inadvert	-13003
▁legacies	-13004
▁matching	-13005
▁medicaid	-13006
▁modified	-13007
▁nicholas	-13008
▁offenses	-13009
▁outgoing	-13010
▁promotes	-13011
▁prostate	-13012
▁relation	-13013
▁retirees	-13014
▁sacrific	-13015
▁sequence	-13016
▁surgical	-13017
▁tracking	-13018
▁vitality	-13019
▁wildlife	-13020
fulfilling	-13021
▁abenomics	-13022
▁alzheimer	-13023
▁assembled	-13024
▁calculate	-13025
▁conceived	-13026
▁contested	-13027
▁depletion	-13028
▁dismantle	-13029
▁donations	-13030
▁downgrade	-13031
▁draconian	-13032
▁encompass	-13033
▁encounter	-13034
▁eurogroup	-13035
▁exchequer	-13036
▁expecting	-13037
▁moderates	-13038
▁perpetual	-13039
▁populated	-13040
▁preceding	-13041
▁prompting	-13042
▁repeating	-13043
▁requested	-13044
▁reshaping	-13045
▁stagnated	-13046
▁subjected	-13047
▁supremacy	-13048
▁untenable	-13049
▁unusually	-13050
▁varieties	-13051
consumption	-13052
▁evaluating	-13053
▁hypothesis	-13054
▁illustrate	-13055
▁keynesians	-13056
▁plummeting	-13057
▁restraints	-13058
▁vigorously	-13059
roprudential	-13060
▁astonishing	-13061
▁colonialism	-13062
▁determinant	-13063
▁discouraged	-13064
▁egalitarian	-13065
▁interpreted	-13066
▁ministerial	-13067
▁predicament	-13068
▁preventable	-13069
▁sensitivity	-13070
▁subsistence	-13071
▁commensurate	-13072
▁conservatism	-13073
▁investigated	-13074
▁isolationism	-13075
▁publications	-13076
▁ratification	-13077
▁satisfaction	-13078
▁shortsighted	-13079
▁unexpectedly	-13080
▁contradiction	-13081
▁demonstrators	-13082
▁inappropriate	-13083
▁extraordinarily	-13084
▁technologically	-13085
28	-13086
88	-13087
fp	-13088
pj	-13089
za	-13090
cho	-13091
del	-13092
dup	-13093
ezz	-13094
iea	-13095
vet	-13096
▁3,	-13097
▁8,	-13098
▁iv	-13099
acks	-13100
ambi	-13101
anol	-13102
ardo	-13103
full	-13104
gher	-13105
iaoy	-13106
ihil	-13107
olis	-13108
teen	-13109
wall	-13110
week	-13111
xual	-13112
▁1.1	-13113
▁12.	-13114
▁120	-13115
▁189	-13116
▁22%	-13117
▁bom	-13118
▁bru	-13119
▁gil	-13120
▁gri	-13121
▁jon	-13122
▁kyr	-13123
▁maf	-13124
▁mcc	-13125
▁pbc	-13126
▁rab	-13127
▁raj	-13128
▁sar	-13129
▁sib	-13130
▁taj	-13131
andme	-13132
arded	-13133
asser	-13134
ichet	-13135
india	-13136
ivist	-13137
lehem	-13138
metic	-13139
piece	-13140
raged	-13141
swing	-13142
tiary	-13143
treat	-13144
uracy	-13145
▁2019	-13146
▁anat	-13147
▁aviv	-13148
▁ayat	-13149
▁blur	-13150
▁buck	-13151
▁buil	-13152
▁corn	-13153
▁ende	-13154
▁esdp	-13155
▁ferv	-13156
▁kids	-13157
▁laos	-13158
▁lean	-13159
▁lion	-13160
▁penn	-13161
▁rear	-13162
▁rift	-13163
▁sein	-13164
▁stir	-13165
▁stro	-13166
▁swfs	-13167
▁taxi	-13168
▁till	-13169
▁turb	-13170
▁unch	-13171
▁vert	-13172
▁yuan	-13173
access	-13174
amount	-13175
collar	-13176
ection	-13177
enting	-13178
ipated	-13179
placed	-13180
russia	-13181
sovere	-13182
threat	-13183
▁altru	-13184
▁anglo	-13185
▁bloom	-13186
▁brook	-13187
▁canal	-13188
▁chips	-13189
▁choke	-13190
▁codes	-13191
▁endow	-13192
▁energ	-13193
▁essay	-13194
▁expel	-13195
▁faire	-13196
▁fairy	-13197
▁gamal	-13198
▁geost	-13199
▁heral	-13200
▁liked	-13201
▁monks	-13202
▁neuro	-13203
▁overc	-13204
▁reset	-13205
▁rogue	-13206
▁sabot	-13207
▁saint	-13208
▁scare	-13209
▁sleep	-13210
▁steer	-13211
▁strik	-13212
▁taxed	-13213
▁tired	-13214
▁title	-13215
▁traum	-13216
▁unpro	-13217
▁vowed	-13218
▁warns	-13219
▁wiser	-13220
amation	-13221
ambique	-13222
because	-13223
climate	-13224
enforce	-13225
ersonal	-13226
gherini	-13227
itating	-13228
ography	-13229
sterdam	-13230
working	-13231
▁admire	-13232
▁aiming	-13233
▁athlet	-13234
▁bashir	-13235
▁blocks	-13236
▁boasts	-13237
▁boosts	-13238
▁builds	-13239
▁centre	-13240
▁column	-13241
▁crypto	-13242
▁dampen	-13243
▁device	-13244
▁dishon	-13245
▁espous	-13246
▁extrad	-13247
▁forums	-13248
▁framed	-13249
▁friday	-13250
▁genius	-13251
▁greeks	-13252
▁halved	-13253
▁heroic	-13254
▁hollow	-13255
▁indisc	-13256
▁lowers	-13257
▁manila	-13258
▁milest	-13259
▁plenum	-13260
▁polite	-13261
▁ration	-13262
▁rolled	-13263
▁roller	-13264
▁sample	-13265
▁shores	-13266
▁topics	-13267
▁trauma	-13268
▁unease	-13269
▁unimag	-13270
▁whites	-13271
▁wounds	-13272
colonial	-13273
learning	-13274
neighbor	-13275
oriously	-13276
services	-13277
transfer	-13278
undering	-13279
▁authent	-13280
▁centrif	-13281
▁clothes	-13282
▁combust	-13283
▁concede	-13284
▁croatia	-13285
▁diarrhe	-13286
▁dispers	-13287
▁dynasty	-13288
▁eroding	-13289
▁erratic	-13290
▁evening	-13291
▁expands	-13292
▁fatigue	-13293
▁foolish	-13294
▁gesture	-13295
▁harmony	-13296
▁indices	-13297
▁inflict	-13298
▁injured	-13299
▁intends	-13300
▁invoked	-13301
▁jointly	-13302
▁outdoor	-13303
▁portray	-13304
▁praised	-13305
▁pressed	-13306
▁railway	-13307
▁relinqu	-13308
▁remarks	-13309
▁rescued	-13310
▁reviews	-13311
▁revolts	-13312
▁scholar	-13313
▁secrecy	-13314
▁simpler	-13315
▁starkly	-13316
▁stoking	-13317
▁trichet	-13318
▁uniting	-13319
▁useless	-13320
▁website	-13321
▁whoever	-13322
▁wishful	-13323
continent	-13324
defeating	-13325
inflicted	-13326
ocumented	-13327
stability	-13328
supported	-13329
▁advocacy	-13330
▁airports	-13331
▁brighter	-13332
▁catalyze	-13333
▁clusters	-13334
▁composed	-13335
▁compound	-13336
▁confirms	-13337
▁councils	-13338
▁dilemmas	-13339
▁disabled	-13340
▁escalate	-13341
▁extravag	-13342
▁formerly	-13343
▁hopeless	-13344
▁importer	-13345
▁ineffect	-13346
▁lawsuits	-13347
▁murdered	-13348
▁napoleon	-13349
▁planners	-13350
▁promptly	-13351
▁prudence	-13352
▁reinhart	-13353
▁romanian	-13354
▁setbacks	-13355
▁strained	-13356
▁stricter	-13357
▁syndrome	-13358
▁tertiary	-13359
▁tolerant	-13360
▁virtuous	-13361
confidence	-13362
increasing	-13363
▁acquiring	-13364
▁adversely	-13365
▁algorithm	-13366
▁amsterdam	-13367
▁arbitrage	-13368
▁ayatollah	-13369
▁bethlehem	-13370
▁blackmail	-13371
▁brilliant	-13372
▁collapses	-13373
▁compounds	-13374
▁comprised	-13375
▁denuclear	-13376
▁ethiopian	-13377
▁formulate	-13378
▁impartial	-13379
▁loosening	-13380
▁mogherini	-13381
▁monitored	-13382
▁narrowing	-13383
▁oligarchs	-13384
▁piecemeal	-13385
▁prejudice	-13386
▁referring	-13387
▁religions	-13388
▁retaining	-13389
▁satellite	-13390
▁selective	-13391
▁signaling	-13392
▁spiritual	-13393
▁unequivoc	-13394
▁victories	-13395
▁wondering	-13396
▁campaigned	-13397
▁conscience	-13398
▁contracted	-13399
▁countering	-13400
▁crossroads	-13401
▁discussing	-13402
▁excitement	-13403
▁financiers	-13404
▁hemoglobin	-13405
▁humanities	-13406
▁laboratory	-13407
▁mozambique	-13408
▁navigating	-13409
▁paraphrase	-13410
▁permitting	-13411
▁pesticides	-13412
▁pioneering	-13413
▁possession	-13414
▁prohibited	-13415
▁recoveries	-13416
▁secularism	-13417
▁strikingly	-13418
▁vegetables	-13419
▁westerners	-13420
▁zuckerberg	-13421
independence	-13422
particularly	-13423
▁acquisition	-13424
▁circulation	-13425
▁cultivating	-13426
▁devastation	-13427
▁establishes	-13428
▁humiliating	-13429
▁intolerable	-13430
▁intolerance	-13431
▁medications	-13432
▁realpolitik	-13433
▁spearheaded	-13434
▁subsidizing	-13435
▁unfortunate	-13436
▁anticipation	-13437
▁geostrategic	-13438
▁incorporated	-13439
▁instrumental	-13440
▁mobilization	-13441
▁scandinavian	-13442
▁alternatively	-13443
▁dictatorships	-13444
▁prescriptions	-13445
▁sterilization	-13446
▁constituencies	-13447
▁contradictions	-13448
▁distributional	-13449
▁macroeconomics	-13450
▁fundamentalists	-13451
▁transformations	-13452
)?	-13453
17	-13454
aa	-13455
bc	-13456
nb	-13457
nd	-13458
7%,	-13459
aci	-13460
aka	-13461
ali	-13462
awa	-13463
awi	-13464
bro	-13465
cio	-13466
dip	-13467
gyz	-13468
hua	-13469
ili	-13470
ocl	-13471
ppo	-13472
rea	-13473
sto	-13474
via	-13475
▁39	-13476
▁az	-13477
-197	-13478
atal	-13479
atts	-13480
bond	-13481
brit	-13482
eman	-13483
enos	-13484
ente	-13485
fits	-13486
gold	-13487
half	-13488
hito	-13489
hung	-13490
illo	-13491
olen	-13492
rape	-13493
sets	-13494
▁0.0	-13495
▁1.7	-13496
▁187	-13497
▁700	-13498
▁apt	-13499
▁bob	-13500
▁dpj	-13501
▁dup	-13502
▁heb	-13503
▁icc	-13504
▁idb	-13505
▁jam	-13506
▁kgb	-13507
▁lyn	-13508
▁soe	-13509
▁von	-13510
▁wet	-13511
annie	-13512
cence	-13513
cibly	-13514
grids	-13515
ijack	-13516
irmed	-13517
isted	-13518
omach	-13519
perty	-13520
proof	-13521
rahim	-13522
trust	-13523
▁1.7%	-13524
▁1945	-13525
▁1982	-13526
▁1993	-13527
▁abdu	-13528
▁acid	-13529
▁afdb	-13530
▁caps	-13531
▁coca	-13532
▁cong	-13533
▁cook	-13534
▁cree	-13535
▁eleg	-13536
▁erit	-13537
▁gent	-13538
▁hubs	-13539
▁kofi	-13540
▁linc	-13541
▁loom	-13542
▁menu	-13543
▁pear	-13544
▁quad	-13545
▁rene	-13546
▁ryan	-13547
▁sham	-13548
▁sins	-13549
▁sixt	-13550
▁slic	-13551
▁sons	-13552
▁soul	-13553
▁tree	-13554
▁yale	-13555
ancies	-13556
atemal	-13557
awatts	-13558
bottom	-13559
effect	-13560
enment	-13561
etched	-13562
ferent	-13563
hammad	-13564
ickers	-13565
ionage	-13566
isfact	-13567
izable	-13568
killed	-13569
larger	-13570
licity	-13571
muslim	-13572
ocused	-13573
points	-13574
tariff	-13575
teries	-13576
untary	-13577
volent	-13578
ximity	-13579
▁1990.	-13580
▁1993,	-13581
▁1997.	-13582
▁aipac	-13583
▁aires	-13584
▁antid	-13585
▁delta	-13586
▁epoch	-13587
▁exile	-13588
▁fanat	-13589
▁frame	-13590
▁glory	-13591
▁graft	-13592
▁grain	-13593
▁guilt	-13594
▁holes	-13595
▁keral	-13596
▁lasts	-13597
▁liver	-13598
▁looms	-13599
▁meles	-13600
▁mosqu	-13601
▁myths	-13602
▁nepal	-13603
▁paint	-13604
▁parks	-13605
▁pause	-13606
▁pools	-13607
▁purge	-13608
▁shoal	-13609
▁stays	-13610
▁taboo	-13611
▁theft	-13612
▁thorn	-13613
▁trace	-13614
▁unfet	-13615
▁uzbek	-13616
natural	-13617
otherap	-13618
parents	-13619
rection	-13620
skilled	-13621
support	-13622
▁armies	-13623
▁aspire	-13624
▁bailed	-13625
▁boldly	-13626
▁buenos	-13627
▁cancel	-13628
▁carney	-13629
▁clouds	-13630
▁dismay	-13631
▁farmer	-13632
▁frozen	-13633
▁galvan	-13634
▁halted	-13635
▁heated	-13636
▁incred	-13637
▁iraqis	-13638
▁kyrgyz	-13639
▁levers	-13640
▁muddle	-13641
▁neglig	-13642
▁paroch	-13643
▁patrol	-13644
▁phased	-13645
▁ponder	-13646
▁poster	-13647
▁promin	-13648
▁pumped	-13649
▁refers	-13650
▁segreg	-13651
▁stayed	-13652
▁stolen	-13653
▁taxing	-13654
▁trains	-13655
▁unfore	-13656
▁wholly	-13657
▁zombie	-13658
business	-13659
positive	-13660
property	-13661
rational	-13662
spending	-13663
▁acutely	-13664
▁battles	-13665
▁categor	-13666
▁cheaply	-13667
▁conform	-13668
▁curious	-13669
▁cypriot	-13670
▁damages	-13671
▁fascism	-13672
▁feeding	-13673
▁florida	-13674
▁frankly	-13675
▁greener	-13676
▁grossly	-13677
▁horrors	-13678
▁ibrahim	-13679
▁impedes	-13680
▁isolate	-13681
▁license	-13682
▁lincoln	-13683
▁lobbies	-13684
▁mandela	-13685
▁marking	-13686
▁melinda	-13687
▁migrate	-13688
▁multipl	-13689
▁opposes	-13690
▁outward	-13691
▁plastic	-13692
▁premise	-13693
▁pretend	-13694
▁primacy	-13695
▁relaxed	-13696
▁reshape	-13697
▁rupture	-13698
▁skyrock	-13699
▁spirits	-13700
▁stomach	-13701
▁tainted	-13702
▁tourist	-13703
▁viewers	-13704
▁wearing	-13705
▁weekend	-13706
deflation	-13707
ordinated	-13708
targeting	-13709
▁accuracy	-13710
▁burdened	-13711
▁creators	-13712
▁defiance	-13713
▁devising	-13714
▁diaspora	-13715
▁employer	-13716
▁extrapol	-13717
▁failings	-13718
▁foreclos	-13719
▁founders	-13720
▁granting	-13721
▁guatemal	-13722
▁hectares	-13723
▁hirohito	-13724
▁holdouts	-13725
▁invasive	-13726
▁issuance	-13727
▁magazine	-13728
▁narrowed	-13729
▁overturn	-13730
▁pitfalls	-13731
▁pleasure	-13732
▁populous	-13733
▁prestige	-13734
▁reacting	-13735
▁receipts	-13736
▁relocate	-13737
▁responds	-13738
▁salaries	-13739
▁salvador	-13740
▁sanction	-13741
▁settling	-13742
▁showdown	-13743
▁sponsors	-13744
▁stepping	-13745
▁studying	-13746
▁suitable	-13747
▁textbook	-13748
▁unreason	-13749
▁unveiled	-13750
▁youngest	-13751
▁accidents	-13752
▁addiction	-13753
▁advertise	-13754
▁answering	-13755
▁apartment	-13756
▁appalling	-13757
▁brightest	-13758
▁caliphate	-13759
▁citigroup	-13760
▁concludes	-13761
▁delegates	-13762
▁espionage	-13763
▁guerrilla	-13764
▁illusions	-13765
▁implosion	-13766
▁instincts	-13767
▁interfere	-13768
▁interrupt	-13769
▁lithuania	-13770
▁nostalgia	-13771
▁occasions	-13772
▁originate	-13773
▁pioneered	-13774
▁pronounce	-13775
▁proximity	-13776
▁reformist	-13777
▁releasing	-13778
▁salvation	-13779
▁signature	-13780
▁travelers	-13781
▁valuation	-13782
▁welcoming	-13783
▁assurances	-13784
▁classified	-13785
▁conceptual	-13786
▁culturally	-13787
▁derivative	-13788
▁directions	-13789
▁enrollment	-13790
▁extinction	-13791
▁illiteracy	-13792
▁implicitly	-13793
▁imprisoned	-13794
▁infighting	-13795
▁ingredient	-13796
▁injections	-13797
▁nationwide	-13798
▁originated	-13799
▁preferable	-13800
▁properties	-13801
▁protective	-13802
▁separately	-13803
▁starvation	-13804
▁stubbornly	-13805
▁submarines	-13806
▁tantamount	-13807
▁thoughtful	-13808
▁unfettered	-13809
▁backgrounds	-13810
▁chronically	-13811
▁comparisons	-13812
▁cooperating	-13813
▁criticizing	-13814
▁diagnostics	-13815
▁groundwater	-13816
▁modernizing	-13817
▁notoriously	-13818
▁predictably	-13819
▁prematurely	-13820
▁separatists	-13821
▁sympathetic	-13822
▁complicating	-13823
▁condemnation	-13824
▁constituency	-13825
▁constructing	-13826
▁guaranteeing	-13827
▁inconvenient	-13828
▁laboratories	-13829
▁preparations	-13830
▁resettlement	-13831
▁retrenchment	-13832
▁safeguarding	-13833
▁appropriately	-13834
▁conversations	-13835
▁disappearance	-13836
▁neighborhoods	-13837
▁unnecessarily	-13838
▁concentrations	-13839
▁cryptocurrency	-13840
▁demonetization	-13841
▁radicalization	-13842
▁administrations	-13843
▁countercyclical	-13844
-0	-13845
23	-13846
fi	-13847
gp	-13848
lc	-13849
rr	-13850
”.	-13851
-1.	-13852
abe	-13853
aza	-13854
bet	-13855
cts	-13856
gro	-13857
inn	-13858
inv	-13859
nis	-13860
ows	-13861
rik	-13862
sax	-13863
teo	-13864
tes	-13865
ube	-13866
wei	-13867
▁45	-13868
buro	-13869
ener	-13870
frag	-13871
harm	-13872
mist	-13873
neum	-13874
neys	-13875
ouch	-13876
rein	-13877
rend	-13878
rous	-13879
safe	-13880
tisa	-13881
uded	-13882
utic	-13883
xing	-13884
▁-1.	-13885
▁160	-13886
▁186	-13887
▁190	-13888
▁5%,	-13889
▁bjp	-13890
▁din	-13891
▁dot	-13892
▁hua	-13893
▁lav	-13894
▁lip	-13895
▁oas	-13896
▁pap	-13897
▁pew	-13898
▁rip	-13899
▁sdg	-13900
▁sir	-13901
▁snb	-13902
▁wed	-13903
alism	-13904
birth	-13905
cribe	-13906
iaoyu	-13907
ieved	-13908
inate	-13909
istry	-13910
leagu	-13911
night	-13912
optim	-13913
prone	-13914
rying	-13915
sters	-13916
super	-13917
▁10%,	-13918
▁boyc	-13919
▁buys	-13920
▁coin	-13921
▁defy	-13922
▁dmit	-13923
▁dump	-13924
▁ensn	-13925
▁icty	-13926
▁lady	-13927
▁lags	-13928
▁luke	-13929
▁mamm	-13930
▁mitt	-13931
▁neat	-13932
▁offs	-13933
▁proc	-13934
▁quar	-13935
▁roof	-13936
▁slim	-13937
▁soar	-13938
▁tarn	-13939
▁unam	-13940
▁wart	-13941
arling	-13942
atable	-13943
credit	-13944
ipient	-13945
irming	-13946
prints	-13947
review	-13948
thical	-13949
ulates	-13950
unders	-13951
utsche	-13952
▁1994,	-13953
▁1996,	-13954
▁ahmed	-13955
▁beset	-13956
▁boats	-13957
▁brake	-13958
▁centr	-13959
▁charm	-13960
▁coral	-13961
▁daoud	-13962
▁ethic	-13963
▁fidel	-13964
▁fifty	-13965
▁flash	-13966
▁float	-13967
▁freer	-13968
▁hemis	-13969
▁hindu	-13970
▁hukou	-13971
▁inacc	-13972
▁lease	-13973
▁lifel	-13974
▁mafia	-13975
▁mouth	-13976
▁nicar	-13977
▁owner	-13978
▁pneum	-13979
▁propr	-13980
▁ridic	-13981
▁sells	-13982
▁slave	-13983
▁stoke	-13984
▁tiger	-13985
▁valls	-13986
▁venge	-13987
▁wiped	-13988
benefit	-13989
dumping	-13990
fashion	-13991
ignific	-13992
inating	-13993
itimate	-13994
ivities	-13995
osexual	-13996
qaddafi	-13997
special	-13998
tisaari	-13999
▁50,000	-14000
▁aleppo	-14001
▁biased	-14002
▁brains	-14003
▁buried	-14004
▁ceased	-14005
▁decoup	-14006
▁depths	-14007
▁dispel	-14008
▁dublin	-14009
▁dystop	-14010
▁eating	-14011
▁engulf	-14012
▁fannie	-14013
▁farage	-14014
▁flames	-14015
▁frenzy	-14016
▁geared	-14017
▁hijack	-14018
▁hinder	-14019
▁incite	-14020
▁kerala	-14021
▁leaked	-14022
▁linear	-14023
▁loosen	-14024
▁malign	-14025
▁mayors	-14026
▁meager	-14027
▁metast	-14028
▁minute	-14029
▁misses	-14030
▁peters	-14031
▁posted	-14032
▁samuel	-14033
▁scenes	-14034
▁shaken	-14035
▁spokes	-14036
▁stoked	-14037
▁talked	-14038
▁update	-14039
▁urging	-14040
ceivable	-14041
centered	-14042
chemical	-14043
electric	-14044
existent	-14045
military	-14046
munition	-14047
otherapy	-14048
reliance	-14049
renching	-14050
ribution	-14051
▁200,000	-14052
▁altered	-14053
▁analogy	-14054
▁anybody	-14055
▁apocaly	-14056
▁apology	-14057
▁awarded	-14058
▁banning	-14059
▁barrels	-14060
▁battery	-14061
▁beleagu	-14062
▁bribery	-14063
▁briefly	-14064
▁buildup	-14065
▁changer	-14066
▁circuit	-14067
▁compuls	-14068
▁conspic	-14069
▁cooling	-14070
▁couples	-14071
▁crafted	-14072
▁discrep	-14073
▁earners	-14074
▁entrust	-14075
▁estonia	-14076
▁inquiry	-14077
▁lottery	-14078
▁marshal	-14079
▁masters	-14080
▁melting	-14081
▁navalny	-14082
▁needing	-14083
▁ominous	-14084
▁ottoman	-14085
▁persian	-14086
▁posture	-14087
▁precond	-14088
▁precurs	-14089
▁reaping	-14090
▁recipro	-14091
▁relates	-14092
▁repatri	-14093
▁scourge	-14094
▁sincere	-14095
▁slashed	-14096
▁stretch	-14097
▁textile	-14098
▁vitally	-14099
▁walking	-14100
▁weakest	-14101
▁weighed	-14102
diagnosis	-14103
emocratic	-14104
fashioned	-14105
▁advisory	-14106
▁airspace	-14107
▁altering	-14108
▁bottlene	-14109
▁bullying	-14110
▁cashless	-14111
▁ceremony	-14112
▁combines	-14113
▁cristina	-14114
▁delusion	-14115
▁dictates	-14116
▁embodies	-14117
▁emirates	-14118
▁enriched	-14119
▁hampered	-14120
▁hardware	-14121
▁ignorant	-14122
▁illiquid	-14123
▁immunity	-14124
▁infamous	-14125
▁interloc	-14126
▁lebanese	-14127
▁literary	-14128
▁muhammad	-14129
▁palpable	-14130
▁policing	-14131
▁rainfore	-14132
▁recruits	-14133
▁regained	-14134
▁severity	-14135
▁shipping	-14136
▁smallest	-14137
▁smoothly	-14138
▁speakers	-14139
▁startups	-14140
▁superfic	-14141
▁triggers	-14142
▁virulent	-14143
▁visitors	-14144
▁woefully	-14145
▁2007-2008	-14146
▁adherence	-14147
▁ahtisaari	-14148
▁ancestors	-14149
▁antarctic	-14150
▁behaviors	-14151
▁childcare	-14152
▁confucian	-14153
▁confusing	-14154
▁contrasts	-14155
▁converted	-14156
▁crippling	-14157
▁curricula	-14158
▁defeating	-14159
▁detainees	-14160
▁directive	-14161
▁educating	-14162
▁ethnicity	-14163
▁faltering	-14164
▁hampering	-14165
▁hierarchy	-14166
▁identical	-14167
▁incidence	-14168
▁incipient	-14169
▁incursion	-14170
▁instances	-14171
▁landslide	-14172
▁mandarins	-14173
▁misplaced	-14174
▁molecular	-14175
▁mountains	-14176
▁painfully	-14177
▁patriarch	-14178
▁phenomena	-14179
▁politburo	-14180
▁pressured	-14181
▁regaining	-14182
▁reversals	-14183
▁rewarding	-14184
▁rivalries	-14185
▁smuggling	-14186
▁stretched	-14187
▁strongmen	-14188
[...]
